{
  "version": "1.0",
  "truncation": null,
  "padding": null,
  "added_tokens": [
    {
      "id": 0,
      "content": "[PAD]",
      "single_word": false,
      "lstrip": false,
      "rstrip": false,
      "normalized": false,
      "special": true
    },
    {
      "id": 1,
      "content": "[UNK]",
      "single_word": false,
      "lstrip": false,
      "rstrip": false,
      "normalized": false,
      "special": true
    },
    {
      "id": 2,
      "content": "[BOS]",
      "single_word": false,
      "lstrip": false,
      "rstrip": false,
      "normalized": false,
      "special": true
    },
    {
      "id": 3,
      "content": "[EOS]",
      "single_word": false,
      "lstrip": false,
      "rstrip": false,
      "normalized": false,
      "special": true
    }
  ],
  "normalizer": null,
  "pre_tokenizer": {
    "type": "Whitespace"
  },
  "post_processor": {
    "type": "TemplateProcessing",
    "single": [
      {
        "Sequence": {
          "id": "A",
          "type_id": 0
        }
      }
    ],
    "pair": [
      {
        "Sequence": {
          "id": "A",
          "type_id": 0
        }
      },
      {
        "Sequence": {
          "id": "B",
          "type_id": 1
        }
      }
    ],
    "special_tokens": {}
  },
  "decoder": null,
  "model": {
    "type": "BPE",
    "dropout": null,
    "unk_token": "[UNK]",
    "continuing_subword_prefix": null,
    "end_of_word_suffix": null,
    "fuse_unk": false,
    "byte_fallback": false,
    "ignore_merges": false,
    "vocab": {
      "[PAD]": 0,
      "[UNK]": 1,
      "[BOS]": 2,
      "[EOS]": 3,
      "!": 4,
      "\"": 5,
      "#": 6,
      "%": 7,
      "'": 8,
      "(": 9,
      ")": 10,
      "*": 11,
      "+": 12,
      ",": 13,
      "-": 14,
      ".": 15,
      "/": 16,
      "0": 17,
      "1": 18,
      "2": 19,
      "3": 20,
      "4": 21,
      "5": 22,
      "6": 23,
      "7": 24,
      "8": 25,
      "9": 26,
      ":": 27,
      ";": 28,
      "<": 29,
      "=": 30,
      ">": 31,
      "?": 32,
      "@": 33,
      "A": 34,
      "B": 35,
      "C": 36,
      "D": 37,
      "E": 38,
      "F": 39,
      "G": 40,
      "H": 41,
      "I": 42,
      "J": 43,
      "K": 44,
      "L": 45,
      "M": 46,
      "N": 47,
      "O": 48,
      "P": 49,
      "R": 50,
      "S": 51,
      "T": 52,
      "U": 53,
      "V": 54,
      "W": 55,
      "X": 56,
      "Y": 57,
      "[": 58,
      "]": 59,
      "_": 60,
      "`": 61,
      "a": 62,
      "b": 63,
      "c": 64,
      "d": 65,
      "e": 66,
      "f": 67,
      "g": 68,
      "h": 69,
      "i": 70,
      "j": 71,
      "k": 72,
      "l": 73,
      "m": 74,
      "n": 75,
      "o": 76,
      "p": 77,
      "r": 78,
      "s": 79,
      "t": 80,
      "u": 81,
      "v": 82,
      "w": 83,
      "x": 84,
      "y": 85,
      "z": 86,
      "{": 87,
      "|": 88,
      "}": 89,
      "~": 90,
      "£": 91,
      "©": 92,
      "°": 93,
      "·": 94,
      "×": 95,
      "ʼ": 96,
      "ँ": 97,
      "ं": 98,
      "ः": 99,
      "अ": 100,
      "आ": 101,
      "इ": 102,
      "ई": 103,
      "उ": 104,
      "ऊ": 105,
      "ऋ": 106,
      "ए": 107,
      "ऐ": 108,
      "ऑ": 109,
      "ओ": 110,
      "औ": 111,
      "क": 112,
      "ख": 113,
      "ग": 114,
      "घ": 115,
      "ङ": 116,
      "च": 117,
      "छ": 118,
      "ज": 119,
      "झ": 120,
      "ञ": 121,
      "ट": 122,
      "ठ": 123,
      "ड": 124,
      "ढ": 125,
      "ण": 126,
      "त": 127,
      "थ": 128,
      "द": 129,
      "ध": 130,
      "न": 131,
      "प": 132,
      "फ": 133,
      "ब": 134,
      "भ": 135,
      "म": 136,
      "य": 137,
      "र": 138,
      "ल": 139,
      "व": 140,
      "श": 141,
      "ष": 142,
      "स": 143,
      "ह": 144,
      "़": 145,
      "ा": 146,
      "ि": 147,
      "ी": 148,
      "ु": 149,
      "ू": 150,
      "ृ": 151,
      "ॅ": 152,
      "े": 153,
      "ै": 154,
      "ॉ": 155,
      "ो": 156,
      "ौ": 157,
      "्": 158,
      "ॐ": 159,
      "॑": 160,
      "॔": 161,
      "क़": 162,
      "ख़": 163,
      "ज़": 164,
      "ड़": 165,
      "ढ़": 166,
      "य़": 167,
      "।": 168,
      "॥": 169,
      "१": 170,
      "२": 171,
      "८": 172,
      "‌": 173,
      "–": 174,
      "—": 175,
      "‘": 176,
      "’": 177,
      "“": 178,
      "”": 179,
      "•": 180,
      "…": 181,
      "ाय": 182,
      "ान": 183,
      "नि": 184,
      "ाव": 185,
      "ों": 186,
      "ार": 187,
      "ां": 188,
      "ोन": 189,
      "..": 190,
      "बि": 191,
      "्र": 192,
      "ाब": 193,
      "ोर": 194,
      "नो": 195,
      "ला": 196,
      "खौ": 197,
      "सि": 198,
      "नाय": 199,
      "मा": 200,
      "बो": 201,
      "ना": 202,
      "बे": 203,
      "से": 204,
      "गो": 205,
      "ाइ": 206,
      "हा": 207,
      "मोन": 208,
      "या": 209,
      "जा": 210,
      "आं": 211,
      "सो": 212,
      "बा": 213,
      "सा": 214,
      "बाय": 215,
      "थि": 216,
      "दों": 217,
      "दि": 218,
      "लि": 219,
      "खा": 220,
      "...": 221,
      "नों": 222,
      "जों": 223,
      "जि": 224,
      "बु": 225,
      "था": 226,
      "न्": 227,
      "यो": 228,
      "दा": 229,
      "ाया": 230,
      "बर": 231,
      "ानै": 232,
      "गोन": 233,
      "ानो": 234,
      "गा": 235,
      "फोर": 236,
      "लाय": 237,
      "रा": 238,
      "ारि": 239,
      "्रा": 240,
      "मि": 241,
      "टाइ": 242,
      "सोर": 243,
      "रो": 244,
      "टाइम": 245,
      "गि": 246,
      "ानि": 247,
      "रि": 248,
      "गु": 249,
      "थाय": 250,
      "जे": 251,
      "जो": 252,
      "मु": 253,
      "मो": 254,
      "ङा": 255,
      "सु": 256,
      "गौ": 257,
      "सै": 258,
      "हो": 259,
      "ले": 260,
      "फा": 261,
      "थां": 262,
      "ब्": 263,
      "म्": 264,
      "्रि": 265,
      "फै": 266,
      "ाबो": 267,
      "फि": 268,
      "नानै": 269,
      "सान": 270,
      "्ट": 271,
      "दु": 272,
      "आरो": 273,
      "मे": 274,
      "**": 275,
      "गाव": 276,
      "खो": 277,
      "दो": 278,
      "दे": 279,
      "आव": 280,
      "दं": 281,
      "राव": 282,
      "बुं": 283,
      "गै": 284,
      "दै": 285,
      "बियो": 286,
      "खु": 287,
      "नै": 288,
      "\"-": 289,
      "खाय": 290,
      "जाय": 291,
      "लां": 292,
      "है": 293,
      "नां": 294,
      "याव": 295,
      "खि": 296,
      "म्बर": 297,
      "वा": 298,
      "ाबाय": 299,
      "राय": 300,
      "थार": 301,
      "हर": 302,
      "लो": 303,
      "ानाय": 304,
      "माव": 305,
      "जु": 306,
      "लाम": 307,
      "स्": 308,
      "ारा": 309,
      "हाय": 310,
      "हाब": 311,
      "ङो": 312,
      "होन": 313,
      "खै": 314,
      "गोर": 315,
      "....": 316,
      "बाव": 317,
      "मान": 318,
      "गोसो": 319,
      "फ्र": 320,
      "आंनि": 321,
      "ब्ला": 322,
      "लु": 323,
      "बै": 324,
      "खालाम": 325,
      "नङा": 326,
      "रां": 327,
      "के": 328,
      "ने": 329,
      "बार": 330,
      "माब": 331,
      "लाइ": 332,
      "ान्": 333,
      "गे": 334,
      "रु": 335,
      "सम": 336,
      "थु": 337,
      "गिरि": 338,
      "हे": 339,
      "्ल": 340,
      "थʼ": 341,
      "गैया": 342,
      "का": 343,
      "खां": 344,
      "नाथाय": 345,
      "नाव": 346,
      "फु": 347,
      "रै": 348,
      "बिनि": 349,
      "्ला": 350,
      "नु": 351,
      "खार": 352,
      "गाब": 353,
      "जायो": 354,
      "दान": 355,
      "सार": 356,
      "\"\"": 357,
      "मानो": 358,
      "जाबाय": 359,
      "झार": 360,
      "दाव": 361,
      "जां": 362,
      "****": 363,
      "लʼ": 364,
      "र्": 365,
      "जान": 366,
      "बां": 367,
      "थो": 368,
      "हि": 369,
      "ग्रा": 370,
      "थाइ": 371,
      "लै": 372,
      "बिसोर": 373,
      "ारी": 374,
      "फ्राय": 375,
      "क्ट": 376,
      "जौ": 377,
      "सिम": 378,
      "ता": 379,
      "नोंनि": 380,
      "ग्र": 381,
      "फो": 382,
      "हु": 383,
      "रे": 384,
      "मिथि": 385,
      "जोब": 386,
      "ायाव": 387,
      "हाया": 388,
      "क्रा": 389,
      "थे": 390,
      "थाखाय": 391,
      "मुं": 392,
      "मै": 393,
      "दिनै": 394,
      "फोरा": 395,
      "यै": 396,
      "स्रि": 397,
      "क्राझार": 398,
      "ार्": 399,
      "नांगौ": 400,
      "लिर": 401,
      "कक्राझार": 402,
      "दोंमोन": 403,
      "ओं": 404,
      "पु": 405,
      "मानि": 406,
      "अक्ट": 407,
      "आइ": 408,
      "हम": 409,
      "जानो": 410,
      "गार": 411,
      "पि": 412,
      "थै": 413,
      "निफ्राय": 414,
      "जिउ": 415,
      "फे": 416,
      "साइ": 417,
      "बादि": 418,
      "टि": 419,
      "ब्र": 420,
      "बोर": 421,
      "जोन": 422,
      "नायनि": 423,
      "आसा": 424,
      "मोजां": 425,
      "फराय": 426,
      "सं": 427,
      "लोगो": 428,
      "खे": 429,
      "क्": 430,
      "नं": 431,
      "ेम्बर": 432,
      "नाया": 433,
      "जादों": 434,
      "सेप": 435,
      "अन": 436,
      "फिन": 437,
      "न्द": 438,
      "आफा": 439,
      "बाथ": 440,
      "कि": 441,
      "फिसा": 442,
      "ङै": 443,
      "जाब": 444,
      "लाबो": 445,
      "साव": 446,
      "दां": 447,
      "ङाव": 448,
      "लाव": 449,
      "जागोन": 450,
      "मिनि": 451,
      "खर": 452,
      "हां": 453,
      "बेसे": 454,
      "आसाम": 455,
      "जानाय": 456,
      "लिया": 457,
      "हारि": 458,
      "हाद": 459,
      "गां": 460,
      "मानसि": 461,
      "थाव": 462,
      "गोनां": 463,
      "डि": 464,
      "मन": 465,
      "ति": 466,
      "नबे": 467,
      "मोनसे": 468,
      "एसे": 469,
      "हाबा": 470,
      "सेप्ट": 471,
      "खौनो": 472,
      "नबेम्बर": 473,
      "उनाव": 474,
      "साय": 475,
      "ोना": 476,
      "जाया": 477,
      "ग्": 478,
      "देर": 479,
      "लों": 480,
      "सेप्टेम्बर": 481,
      "लान": 482,
      "बाद": 483,
      "सिन": 484,
      "अक्टबर": 485,
      "ोम": 486,
      "जाव": 487,
      "सन": 488,
      "थायो": 489,
      "आंखौ": 490,
      "खोम": 491,
      "फोरनि": 492,
      "हागौ": 493,
      "सालि": 494,
      "लिरगिरि": 495,
      "को": 496,
      "मोन्": 497,
      "फोरखौ": 498,
      "प्र": 499,
      "सुबुं": 500,
      "जेबो": 501,
      "उन्": 502,
      "गोदान": 503,
      "सोम": 504,
      "गान": 505,
      "हाम": 506,
      "गुबु": 507,
      "कर": 508,
      "//": 509,
      "स्र": 510,
      "आय": 511,
      "आर": 512,
      "माय": 513,
      "गुबुन": 514,
      "गं": 515,
      "सानै": 516,
      "ख्र": 517,
      "बान": 518,
      "मले": 519,
      "कु": 520,
      "सेम्बर": 521,
      "दाय": 522,
      "खिसै": 523,
      "बाथ्रा": 524,
      "लामा": 525,
      "गावनि": 526,
      "में": 527,
      "जेरै": 528,
      "दोन": 529,
      "मोना": 530,
      "सौ": 531,
      "नायाव": 532,
      "राइ": 533,
      "बेनि": 534,
      "सासे": 535,
      "जोंनि": 536,
      "सान्": 537,
      "आले": 538,
      "थों": 539,
      "मार": 540,
      "बिखौ": 541,
      "आदा": 542,
      "की": 543,
      "गाय": 544,
      "ननि": 545,
      "गसाइ": 546,
      "ज्": 547,
      "बय": 548,
      "नामा": 549,
      "ती": 550,
      "पा": 551,
      "सिरि": 552,
      "गासि": 553,
      "आख": 554,
      "टी": 555,
      "सों": 556,
      "राम": 557,
      "ब्लाबो": 558,
      "********": 559,
      "ाबा": 560,
      "रं": 561,
      "सोरनि": 562,
      "थाब": 563,
      "पुर": 564,
      "लाया": 565,
      "वाव": 566,
      "बिदि": 567,
      "दुखु": 568,
      "ओंखार": 569,
      "चि": 570,
      "भे": 571,
      "बिमा": 572,
      "नोसै": 573,
      "गोजोन": 574,
      "थिया": 575,
      "खाथि": 576,
      "आन": 577,
      "जेराव": 578,
      "हादोर": 579,
      "समाव": 580,
      "गारि": 581,
      "सर": 582,
      "हार": 583,
      "बेखौ": 584,
      "फ्रा": 585,
      "माइ": 586,
      "मह": 587,
      "उन": 588,
      "जै": 589,
      "ते": 590,
      "मेग": 591,
      "माबा": 592,
      "सिमां": 593,
      "लानानै": 594,
      "फां": 595,
      "खालामनो": 596,
      "फुं": 597,
      "ज्रि": 598,
      "बेनो": 599,
      "टे": 600,
      "उन्दु": 601,
      "खाव": 602,
      "खन": 603,
      "ाराम": 604,
      "ान्थि": 605,
      "भार": 606,
      "ल्": 607,
      "नोंखौ": 608,
      "गोरबो": 609,
      "खाम": 610,
      "होनो": 611,
      "ाब्ला": 612,
      "लाङो": 613,
      "नʼ": 614,
      "मत": 615,
      "जोबो": 616,
      "बिलि": 617,
      "नाङा": 618,
      "थानो": 619,
      "फाव": 620,
      "ांगौ": 621,
      "दिसेम्बर": 622,
      "गिदि": 623,
      "समाय": 624,
      "ंग": 625,
      "बसु": 626,
      "लायो": 627,
      "दर": 628,
      "लांबाय": 629,
      "फं": 630,
      "बेयाव": 631,
      "मोखां": 632,
      "खोन": 633,
      "भी": 634,
      "लुबै": 635,
      "भेर": 636,
      "ाना": 637,
      "माथो": 638,
      "बेयो": 639,
      "गर": 640,
      "समा": 641,
      "ाबु": 642,
      "खौबो": 643,
      "फैदों": 644,
      "भेरगाव": 645,
      "न्ट": 646,
      "बुङो": 647,
      "थांखि": 648,
      "फैयो": 649,
      "गसाइगाव": 650,
      "ग्ल": 651,
      "बोसोर": 652,
      "थानाय": 653,
      "ष्ट": 654,
      "आखाइ": 655,
      "दार": 656,
      "फारि": 657,
      "रनि": 658,
      "सायाव": 659,
      "ही": 660,
      "जेन": 661,
      "ख्रि": 662,
      "थोर": 663,
      "स्ट": 664,
      "जानानै": 665,
      "थाम": 666,
      "लायाव": 667,
      "जार": 668,
      "गोबां": 669,
      "आंबो": 670,
      "गासै": 671,
      "होयो": 672,
      "नागि": 673,
      "अप": 674,
      "आब": 675,
      "दङ": 676,
      "माया": 677,
      "आंहा": 678,
      "राज": 679,
      "ली": 680,
      "नोंसोर": 681,
      "हायो": 682,
      "बयबो": 683,
      "थाया": 684,
      "बारा": 685,
      "मोनो": 686,
      "........": 687,
      "--": 688,
      "मोनबाय": 689,
      "नांगोन": 690,
      "राइजो": 691,
      "महर": 692,
      "बिन": 693,
      "अर": 694,
      "लानो": 695,
      "त्": 696,
      "बारि": 697,
      "एप": 698,
      "खान्थि": 699,
      "ोरै": 700,
      "बेल": 701,
      "भारत": 702,
      "थोन": 703,
      "पर": 704,
      "साब": 705,
      "सलʼ": 706,
      "मोदै": 707,
      "्रिल": 708,
      "थुन": 709,
      "फ्": 710,
      "सोन": 711,
      "बायदि": 712,
      "फार": 713,
      "जोर": 714,
      "द्र": 715,
      "लनि": 716,
      "बिहा": 717,
      "गोहो": 718,
      "मलेन": 719,
      "मी": 720,
      "याबो": 721,
      "सी": 722,
      "गाहाय": 723,
      "यारि": 724,
      "जाखो": 725,
      "माब्ल": 726,
      "हानाय": 727,
      "गाज्रि": 728,
      "गुवा": 729,
      "दुं": 730,
      "स्व": 731,
      "एफ": 732,
      "नायखौ": 733,
      "बाजि": 734,
      "बरʼ": 735,
      "फैबाय": 736,
      "बुंनो": 737,
      "माबोरै": 738,
      "जिउनि": 739,
      "गुवाहा": 740,
      "दाब": 741,
      "दसे": 742,
      "मनि": 743,
      ".....": 744,
      "माबार": 745,
      "बसुमत": 746,
      "इउ": 747,
      "जारि": 748,
      "ट्र": 749,
      "हौ": 750,
      "बिफ": 751,
      "बिसि": 752,
      "दुर्": 753,
      "खायाव": 754,
      "सʼ": 755,
      "सिनाय": 756,
      "खालि": 757,
      "खामानि": 758,
      "जोंनो": 759,
      "होनाय": 760,
      "अन्": 761,
      "गथʼ": 762,
      "ेन": 763,
      "मोनगोन": 764,
      "थायाव": 765,
      "खुं": 766,
      "खायनो": 767,
      "जुन": 768,
      "बावनो": 769,
      "ओंखाम": 770,
      "थौ": 771,
      "ब्रा": 772,
      "गिबि": 773,
      "सिगां": 774,
      "मासि": 775,
      "ब्लि": 776,
      "हें": 777,
      "गंसे": 778,
      "थाबाय": 779,
      "री": 780,
      "नाथ": 781,
      "खाफा": 782,
      "गुमै": 783,
      "अखा": 784,
      "उदां": 785,
      "त्र": 786,
      "निबो": 787,
      "बिबार": 788,
      "खौरां": 789,
      "सिख": 790,
      "सिङाव": 791,
      "दाउ": 792,
      "गामि": 793,
      "रावबो": 794,
      "हिन्": 795,
      "गासिनो": 796,
      "थान": 797,
      "याखै": 798,
      "सोलाय": 799,
      "लांनो": 800,
      "जुलि": 801,
      "खोमसि": 802,
      "सनि": 803,
      "सानो": 804,
      "सारि": 805,
      "गोजौ": 806,
      "आंनो": 807,
      "गोसोआव": 808,
      "थेव": 809,
      "जʼ": 810,
      "बड": 811,
      "बिलाइ": 812,
      "लाजि": 813,
      "जिराय": 814,
      "गुरि": 815,
      "बुंबाय": 816,
      "यान": 817,
      "्बो": 818,
      "सोदो": 819,
      "दिया": 820,
      "इस": 821,
      "टा": 822,
      "बोथोर": 823,
      "जाम": 824,
      "थिनि": 825,
      "न्दा": 826,
      "मोदो": 827,
      "ारामा": 828,
      "लोगोसे": 829,
      "एस": 830,
      "जी": 831,
      "वि": 832,
      "बिर": 833,
      "मानोना": 834,
      "आलेया": 835,
      "जोबोद": 836,
      "तु": 837,
      "सानि": 838,
      "नोगोर": 839,
      "बाजै": 840,
      "सायख": 841,
      "गुवाहाटी": 842,
      "थेवबो": 843,
      "दाइ": 844,
      "नवाव": 845,
      "फाय": 846,
      "भा": 847,
      "सां": 848,
      "बें": 849,
      "नागिर": 850,
      "झे": 851,
      "ानाव": 852,
      "मिजि": 853,
      "गेले": 854,
      "फंबाय": 855,
      "इन्": 856,
      "बहा": 857,
      "सोलों": 858,
      "राहा": 859,
      "मनजु": 860,
      "मेगन": 861,
      "लपुर": 862,
      "ुव": 863,
      "थाखो": 864,
      "मुलु": 865,
      "होबाय": 866,
      "ब्दि": 867,
      "केल": 868,
      "बिसोरनि": 869,
      "एप्रिल": 870,
      "आग": 871,
      "आबाद": 872,
      "दानो": 873,
      "दाबो": 874,
      "मन्": 875,
      "हरो": 876,
      "हाबो": 877,
      "मालाय": 878,
      "थाङा": 879,
      "बसुमतारी": 880,
      "इं": 881,
      "और": 882,
      "खाया": 883,
      "बेफोर": 884,
      "एम": 885,
      "करा": 886,
      "खोना": 887,
      "भि": 888,
      "मार्": 889,
      "स्रा": 890,
      "नोंनो": 891,
      "होदों": 892,
      "स्त": 893,
      "आसामनि": 894,
      "हिन्जाव": 895,
      "आखु": 896,
      "ख्": 897,
      "लं": 898,
      "खाङो": 899,
      "थाङो": 900,
      "मिथिगौ": 901,
      "बिनानाव": 902,
      "गʼ": 903,
      "दानि": 904,
      "नङ": 905,
      "बान्": 906,
      "ावनो": 907,
      "माहा": 908,
      "बाग": 909,
      "मिहि": 910,
      "गुर": 911,
      "सुं": 912,
      "जोनोम": 913,
      "अब्ला": 914,
      "आथि": 915,
      "आगान": 916,
      "एन": 917,
      "एबा": 918,
      "बिब्दि": 919,
      "गासिबो": 920,
      "रंजा": 921,
      "सोदोब": 922,
      "++": 923,
      "आला": 924,
      "डा": 925,
      "दमन": 926,
      "बाइ": 927,
      "हानि": 928,
      "गोबाव": 929,
      "फ्रोम": 930,
      "गेजेराव": 931,
      "पुलि": 932,
      "रों": 933,
      "बिल": 934,
      "नोंथां": 935,
      "बुजि": 936,
      "मुझे": 937,
      "फिनो": 938,
      "गैयै": 939,
      "आफाद": 940,
      "एक": 941,
      "द्": 942,
      "लाखि": 943,
      "बेखौनो": 944,
      "गोलाव": 945,
      "गोग्ल": 946,
      "गेजे": 947,
      "सानैबो": 948,
      "कराझार": 949,
      "गोग्लै": 950,
      "कार": 951,
      "कले": 952,
      "खन्": 953,
      "बिनो": 954,
      "खाल": 955,
      "नोंहा": 956,
      "जें": 957,
      "मोजा": 958,
      "दोलो": 959,
      "गोरा": 960,
      "रैनो": 961,
      "माब्लाबा": 962,
      "खʼ": 963,
      "नार्": 964,
      "सहे": 965,
      "ांगोन": 966,
      "बिफा": 967,
      "नंगौ": 968,
      "समाज": 969,
      "हीं": 970,
      "गानि": 971,
      "नखर": 972,
      "साया": 973,
      "बिजाब": 974,
      "साहा": 975,
      "न्ड": 976,
      "जोम": 977,
      "क्ष": 978,
      "मलेना": 979,
      "जन": 980,
      "रजि": 981,
      "लाबाय": 982,
      "सब": 983,
      "खोमा": 984,
      "खिन्": 985,
      "बोरै": 986,
      "फरायसा": 987,
      "किया": 988,
      "सोमबोर": 989,
      "फारसे": 990,
      "गेजेर": 991,
      "प्": 992,
      "सिखार": 993,
      "जिर": 994,
      "दंमोन": 995,
      "स्क": 996,
      "गोर्बो": 997,
      "जानांगौ": 998,
      "थेफे": 999,
      "उदु": 1000,
      "गसं": 1001,
      "दम": 1002,
      "बोन": 1003,
      "सिरां": 1004,
      "सें": 1005,
      "सेर": 1006,
      "गोम": 1007,
      "तामु": 1008,
      "बन्द": 1009,
      "मद": 1010,
      "नोजोर": 1011,
      "नायनो": 1012,
      "गुबै": 1013,
      "लोम": 1014,
      "देरहा": 1015,
      "आबौ": 1016,
      "हौवा": 1017,
      "मुलुग": 1018,
      "मोजाङै": 1019,
      "नहीं": 1020,
      "पार": 1021,
      "ये": 1022,
      "लानि": 1023,
      "….": 1024,
      "बिसायख": 1025,
      "मोननो": 1026,
      "आंगो": 1027,
      "बाहाय": 1028,
      "दिनि": 1029,
      "सोरखौ": 1030,
      "रिया": 1031,
      "खोथा": 1032,
      "लांगोन": 1033,
      "ग्रे": 1034,
      "स्रिया": 1035,
      "आइजो": 1036,
      "थ्रि": 1037,
      "दाया": 1038,
      "बं": 1039,
      "याब": 1040,
      "लाब": 1041,
      "साख्रि": 1042,
      "दाल": 1043,
      "फिनबाय": 1044,
      "चिरां": 1045,
      "थुनलाइ": 1046,
      "ुवारी": 1047,
      "अराय": 1048,
      "आलाइ": 1049,
      "एल": 1050,
      "बी": 1051,
      "लाराम": 1052,
      "हाव": 1053,
      "बिथां": 1054,
      "बोहै": 1055,
      "फोरों": 1056,
      "मिन": 1057,
      "लांनाय": 1058,
      "गोसोआ": 1059,
      "लुं": 1060,
      "बैसो": 1061,
      "संसार": 1062,
      "हारिनि": 1063,
      "खन्थाइ": 1064,
      "ग्रि": 1065,
      "डे": 1066,
      "पे": 1067,
      "लासै": 1068,
      "सोरां": 1069,
      "गोरो": 1070,
      "केट": 1071,
      "थुर": 1072,
      "ग्रो": 1073,
      "मिथिया": 1074,
      "डिसेम्बर": 1075,
      "ज्लाय": 1076,
      "समायना": 1077,
      "सिख्ला": 1078,
      "खान": 1079,
      "खानि": 1080,
      "यार": 1081,
      "रʼ": 1082,
      "रान": 1083,
      "वार": 1084,
      "हरा": 1085,
      "थिखौ": 1086,
      "खाला": 1087,
      "मिरु": 1088,
      "मोखा": 1089,
      "सैथो": 1090,
      "थांबाय": 1091,
      "हरनि": 1092,
      "बांसिन": 1093,
      "हमबाय": 1094,
      "खाथियाव": 1095,
      "बिलिफा": 1096,
      "तामुलपुर": 1097,
      "जल": 1098,
      "दʼ": 1099,
      "यानो": 1100,
      "लखौ": 1101,
      "ह्": 1102,
      "ैनो": 1103,
      "बिलाय": 1104,
      "साह": 1105,
      "साला": 1106,
      "जिल": 1107,
      "बुर": 1108,
      "बुङा": 1109,
      "बुहु": 1110,
      "खायो": 1111,
      "हाबाब": 1112,
      "हायाखै": 1113,
      "फिसाजो": 1114,
      ":-": 1115,
      "लानाय": 1116,
      "बिखा": 1117,
      "गोजां": 1118,
      "नोंबो": 1119,
      "फैनो": 1120,
      "फैदो": 1121,
      "ग्रां": 1122,
      "****************": 1123,
      "फावथाइ": 1124,
      "इसे": 1125,
      "गायाव": 1126,
      "च्": 1127,
      "थर": 1128,
      "यु": 1129,
      "श्": 1130,
      "ोन्": 1131,
      "सिगोन": 1132,
      "जाद": 1133,
      "सोमोन्": 1134,
      "लिए": 1135,
      "बुब्लि": 1136,
      "होगोन": 1137,
      "थांदो": 1138,
      "गावनो": 1139,
      "गोसोनि": 1140,
      "खांबाय": 1141,
      "दावहा": 1142,
      "खरʼ": 1143,
      "खम": 1144,
      "खाबु": 1145,
      "ड़": 1146,
      "थं": 1147,
      "बʼ": 1148,
      "सना": 1149,
      "हाइ": 1150,
      "हनै": 1151,
      "बिमाया": 1152,
      "सेबो": 1153,
      "गोमा": 1154,
      "हरबाय": 1155,
      "फोसाव": 1156,
      "रेल": 1157,
      "ब्रे": 1158,
      "ज्यो": 1159,
      "महारा": 1160,
      "स्वर": 1161,
      "गाया": 1162,
      "दौ": 1163,
      "नार": 1164,
      "नायजों": 1165,
      "बेव": 1166,
      "सुजु": 1167,
      "साना": 1168,
      "दुम": 1169,
      "दें": 1170,
      "हरदों": 1171,
      "होननानै": 1172,
      "बारी": 1173,
      "दावबाय": 1174,
      "खें": 1175,
      "जायाखै": 1176,
      "ग्दाव": 1177,
      "आयं": 1178,
      "आगै": 1179,
      "कार्": 1180,
      "खोर": 1181,
      "गम्": 1182,
      "बबे": 1183,
      "भु": 1184,
      "सखौ": 1185,
      "।\"": 1186,
      "बिटि": 1187,
      "सिया": 1188,
      "माखौ": 1189,
      "जाथार": 1190,
      "खासे": 1191,
      "जोंथिया": 1192,
      "थांनोसै": 1193,
      "लांदों": 1194,
      "स्कु": 1195,
      "हायै": 1196,
      "होन्": 1197,
      "फरायबाव": 1198,
      "खेव": 1199,
      "स्रां": 1200,
      "बिदिब्ला": 1201,
      "दङʼ": 1202,
      "हेंथा": 1203,
      "मार्च": 1204,
      "गम्भी": 1205,
      "अल": 1206,
      "उदै": 1207,
      "खारि": 1208,
      "दोर": 1209,
      "बन": 1210,
      "बिखायाव": 1211,
      "थांनो": 1212,
      "थांना": 1213,
      "गोसोखौ": 1214,
      "थुम": 1215,
      "अपने": 1216,
      "मीन": 1217,
      "आरि": 1218,
      "इरा": 1219,
      "एरैनो": 1220,
      "ची": 1221,
      "बनाय": 1222,
      "लाख": 1223,
      "माखासे": 1224,
      "बाहा": 1225,
      "रागा": 1226,
      "देहा": 1227,
      "बुंदों": 1228,
      "गैय": 1229,
      "खांनाय": 1230,
      "गाबोन": 1231,
      "जोबोर": 1232,
      "ब्रह्": 1233,
      "सुबुंनि": 1234,
      "सांग्रां": 1235,
      "बागसा": 1236,
      "दालगुरि": 1237,
      "बिलिफाङा": 1238,
      "अब्लाबो": 1239,
      "फाया": 1240,
      "थिन": 1241,
      "जिल्": 1242,
      "सुखु": 1243,
      "फैगौ": 1244,
      "बैसा": 1245,
      "खालामदों": 1246,
      "खांदों": 1247,
      "बिसोरखौ": 1248,
      "हायाखिसै": 1249,
      "हमदों": 1250,
      "माहाजोन": 1251,
      "आलासि": 1252,
      "अरु": 1253,
      "आन्": 1254,
      "दी": 1255,
      "वन": 1256,
      "हान": 1257,
      "बिबो": 1258,
      "बियाब": 1259,
      "गोथार": 1260,
      "गोजान": 1261,
      "मोननाय": 1262,
      "थागोन": 1263,
      "लायबाय": 1264,
      "थायनि": 1265,
      "गौमोन": 1266,
      "लें": 1267,
      "फैगोन": 1268,
      "गोरोन्": 1269,
      "फेब्र": 1270,
      "अननाय": 1271,
      "बाथ्र": 1272,
      "मानसिया": 1273,
      "बाथ्राखौ": 1274,
      "आनारी": 1275,
      "मोदोम": 1276,
      "फ्रोमबो": 1277,
      "खालामो": 1278,
      "महाराजा": 1279,
      "नख": 1280,
      "नी": 1281,
      "सहाय": 1282,
      "नोबो": 1283,
      "नागा": 1284,
      "जासे": 1285,
      "साद": 1286,
      "न्थि": 1287,
      "दाहा": 1288,
      "गामिनि": 1289,
      "गाहाम": 1290,
      "ब्लानो": 1291,
      "सानबाय": 1292,
      "सानस्रि": 1293,
      "लाइजाम": 1294,
      "चित": 1295,
      "गासैबो": 1296,
      "जिल्लायाव": 1297,
      "एफा": 1298,
      "क्र": 1299,
      "गाबो": 1300,
      "जर": 1301,
      "बबाव": 1302,
      "बाबु": 1303,
      "सिबि": 1304,
      "सोरबा": 1305,
      "......": 1306,
      "फोद": 1307,
      "खेब": 1308,
      "क्स": 1309,
      "सावगारि": 1310,
      "गांसे": 1311,
      "बादल": 1312,
      "हारसि": 1313,
      "जारिमिन": 1314,
      "सहेन": 1315,
      "गोरोब": 1316,
      "गम्भीर": 1317,
      "ब्रह्म": 1318,
      "गय": 1319,
      "त्रि": 1320,
      "मायाव": 1321,
      "शा": 1322,
      "हान्": 1323,
      "हगार": 1324,
      "हागोन": 1325,
      "लायनो": 1326,
      "गियान": 1327,
      "मोग": 1328,
      "सानसे": 1329,
      "रेब": 1330,
      "बेसेन": 1331,
      "खोन्": 1332,
      "सʼना": 1333,
      "जीवन": 1334,
      "नङाब्ला": 1335,
      "पुलिस": 1336,
      "सेंग्रा": 1337,
      "अनाथ": 1338,
      "इन": 1339,
      "ओन": 1340,
      "भट": 1341,
      "मं": 1342,
      "मारि": 1343,
      "रानि": 1344,
      "निया": 1345,
      "बिजिर": 1346,
      "बोयो": 1347,
      "हाग्रा": 1348,
      "सुर": 1349,
      "खुगा": 1350,
      "यावनो": 1351,
      "थारा": 1352,
      "मावनो": 1353,
      "बावो": 1354,
      "जोबथा": 1355,
      "बादला": 1356,
      "स्री": 1357,
      "कुमार": 1358,
      "राजखान्थि": 1359,
      "दुर्जा": 1360,
      "अनाथी": 1361,
      "ओनसो": 1362,
      "बानाय": 1363,
      "हराव": 1364,
      "बिबारि": 1365,
      "गोजा": 1366,
      "गोदै": 1367,
      "जाहै": 1368,
      "जित": 1369,
      "दाम": 1370,
      "फोराव": 1371,
      "रादाब": 1372,
      "फालि": 1373,
      "लोब": 1374,
      "बोराय": 1375,
      "सेप्": 1376,
      "आखाइयाव": 1377,
      "आगष्ट": 1378,
      "फेब्रुवारी": 1379,
      "अम": 1380,
      "आबुं": 1381,
      "तेम्बर": 1382,
      "वे": 1383,
      "शि": 1384,
      "सन्": 1385,
      "हू": 1386,
      "ोनो": 1387,
      "बिमानि": 1388,
      "नाथा": 1389,
      "गोमो": 1390,
      "गोख्र": 1391,
      "जाहोन": 1392,
      "दिहु": 1393,
      "गुन्दा": 1394,
      "सुला": 1395,
      "थांनाय": 1396,
      "थांगोन": 1397,
      "जायगा": 1398,
      "थारबाय": 1399,
      "लाइमोन": 1400,
      "रुप": 1401,
      "्लाबो": 1402,
      "सिमबो": 1403,
      "हमनो": 1404,
      "नोगोरारि": 1405,
      "इराग्दाव": 1406,
      "गोरोन्थि": 1407,
      "!!": 1408,
      "आप": 1409,
      "आबो": 1410,
      "आयै": 1411,
      "खाब": 1412,
      "गी": 1413,
      "दख": 1414,
      "ायो": 1415,
      "बिफां": 1416,
      "मोनदों": 1417,
      "दिन्थि": 1418,
      "...।": 1419,
      "नोंलाय": 1420,
      "जोंखौ": 1421,
      "फोरमाय": 1422,
      "मेले": 1423,
      "हैं": 1424,
      "लाइन": 1425,
      "रैखाथि": 1426,
      "जेरैबो": 1427,
      "थोंसै": 1428,
      "खाफाल": 1429,
      "जेंना": 1430,
      "आल": 1431,
      "आन्द": 1432,
      "कवि": 1433,
      "गान्": 1434,
      "चे": 1435,
      "यों": 1436,
      "्ड": 1437,
      "नायबाय": 1438,
      "बेनिफ्राय": 1439,
      "बेबादि": 1440,
      "मोननै": 1441,
      "जाथाय": 1442,
      "सोले": 1443,
      "जोंबो": 1444,
      "थासारि": 1445,
      "लायनाय": 1446,
      "जोहो": 1447,
      "फागु": 1448,
      "फालां": 1449,
      "थांनानै": 1450,
      "सानदों": 1451,
      "हाबफैयो": 1452,
      "होनानै": 1453,
      "खालामबाय": 1454,
      "समनि": 1455,
      "फुर": 1456,
      "नंखाय": 1457,
      "न्द्र": 1458,
      "बेसेबां": 1459,
      "बेयावनो": 1460,
      "सेप्तेम्बर": 1461,
      "उजि": 1462,
      "उदालगुरि": 1463,
      "कम": 1464,
      "चा": 1465,
      "यानि": 1466,
      "वो": 1467,
      "बिसार": 1468,
      "बोलो": 1469,
      "नागार": 1470,
      "जिना": 1471,
      "फोरमान": 1472,
      "राजा": 1473,
      "रोजा": 1474,
      "रोखोम": 1475,
      "जोबा": 1476,
      "सुथुर": 1477,
      "होम": 1478,
      "फैया": 1479,
      "फैसालि": 1480,
      "गैला": 1481,
      "काजल": 1482,
      "फोजोब": 1483,
      "आसामाव": 1484,
      "हांमा": 1485,
      "रामनाथा": 1486,
      "फ्ले": 1487,
      "द्राय": 1488,
      "मोगथां": 1489,
      "आखायाव": 1490,
      "खहा": 1491,
      "खानाय": 1492,
      "दान्": 1493,
      "धान": 1494,
      "फाइ": 1495,
      "बद": 1496,
      "सिगा": 1497,
      "नायो": 1498,
      "नायहरो": 1499,
      "बोला": 1500,
      "गोदो": 1501,
      "राज्यो": 1502,
      "गिनाय": 1503,
      "मोसौ": 1504,
      "सुलि": 1505,
      "फाजाब": 1506,
      "थांदों": 1507,
      "होना": 1508,
      "गेट": 1509,
      "हेफाजाब": 1510,
      "मानोथो": 1511,
      "ब्रै": 1512,
      "नंलिया": 1513,
      "बानु": 1514,
      "जेरावबो": 1515,
      "लुबैयो": 1516,
      "फारिया": 1517,
      "मलेनखौ": 1518,
      "कियाजुलि": 1519,
      "थेफेन": 1520,
      "मोखाङाव": 1521,
      "देंखो": 1522,
      "20": 1523,
      "अं": 1524,
      "आखाय": 1525,
      "आर्": 1526,
      "बाब": 1527,
      "लार": 1528,
      "ेकियाजुलि": 1529,
      "बिदा": 1530,
      "बिपि": 1531,
      "ोरोम": 1532,
      "सिबाय": 1533,
      "बोसोरनि": 1534,
      "बेबो": 1535,
      "बेखेव": 1536,
      "सेराव": 1537,
      "गोथै": 1538,
      "जागाय": 1539,
      "बायो": 1540,
      "गाखो": 1541,
      "मुङा": 1542,
      "फैयाखै": 1543,
      "दंना": 1544,
      "हैबाय": 1545,
      "वाद": 1546,
      "ग्राय": 1547,
      "मिथिनो": 1548,
      "मिथिबाय": 1549,
      "जोबनाय": 1550,
      "साइकेल": 1551,
      "एसेबां": 1552,
      "समावनो": 1553,
      "स्वरचित": 1554,
      "खोन्दो": 1555,
      "कविता": 1556,
      "जोहोलाव": 1557,
      ")-": 1558,
      "आद": 1559,
      "खं": 1560,
      "ङानो": 1561,
      "तर": 1562,
      "थगाय": 1563,
      "दू": 1564,
      "ष्": 1565,
      "हार्": 1566,
      "सिनो": 1567,
      "जादोंमोन": 1568,
      "बाक": 1569,
      "थाल": 1570,
      "जेब्लाबो": 1571,
      "मोसा": 1572,
      "गैलिया": 1573,
      "खायसे": 1574,
      "वाल": 1575,
      "रांनि": 1576,
      "हेर": 1577,
      "नुनानै": 1578,
      "जोबबाय": 1579,
      "मैं": 1580,
      "जानायनि": 1581,
      "बेलस्रि": 1582,
      "++++": 1583,
      "दोलोआ": 1584,
      "बोनाय": 1585,
      "बेवहाय": 1586,
      "बाहागो": 1587,
      "खाना": 1588,
      "जाबो": 1589,
      "लोर": 1590,
      "हाबाय": 1591,
      "्लि": 1592,
      "।।": 1593,
      "बिथि": 1594,
      "सिनि": 1595,
      "हाल": 1596,
      "आंजों": 1597,
      "सोलि": 1598,
      "दिन": 1599,
      "जोमै": 1600,
      "ङाखै": 1601,
      "सुनि": 1602,
      "म्बि": 1603,
      "म्बा": 1604,
      "***": 1605,
      "नेव": 1606,
      "रुं": 1607,
      "रुवा": 1608,
      "गैयामोन": 1609,
      "जाना": 1610,
      "जौगा": 1611,
      "फरायसालि": 1612,
      "गोनांथि": 1613,
      "ग्लि": 1614,
      "प्रे": 1615,
      "उन्दै": 1616,
      "सोमजि": 1617,
      "मेगनाव": 1618,
      "बिफानि": 1619,
      "फायो": 1620,
      "आबादारि": 1621,
      "खिन्था": 1622,
      "जिल्ला": 1623,
      "बैसागु": 1624,
      "दुर्जाङा": 1625,
      "सिगाङाव": 1626,
      "बिपिएफ": 1627,
      "?:": 1628,
      "आबै": 1629,
      "कल": 1630,
      "ख्ल": 1631,
      "गल": 1632,
      "टार": 1633,
      "पू": 1634,
      "फान": 1635,
      "फोन": 1636,
      "बिला": 1637,
      "बिखाया": 1638,
      "्री": 1639,
      "बेर": 1640,
      "गोलोम": 1641,
      "हाला": 1642,
      "जाथाव": 1643,
      "बाजु": 1644,
      "थियारि": 1645,
      "दिसे": 1646,
      "नोंसोरनि": 1647,
      "बराय": 1648,
      "गुन्द": 1649,
      "गुदुं": 1650,
      "जेपि": 1651,
      "जेकेट": 1652,
      "मुलि": 1653,
      "देश": 1654,
      "बुंनाय": 1655,
      "खालामनानै": 1656,
      "रुम": 1657,
      "्लानि": 1658,
      "बिसोरो": 1659,
      "बोरो": 1660,
      "मिनिट": 1661,
      "हाबाखौ": 1662,
      "ख्रां": 1663,
      "ओंखारलाङो": 1664,
      "हादोरसायाव": 1665,
      "सरक": 1666,
      "आबʼ": 1667,
      "दुर्जां": 1668,
      "त्री": 1669,
      "तुलाराम": 1670,
      "मिहिरा": 1671,
      "कलेज": 1672,
      "नखरनि": 1673,
      "सोमोन्दो": 1674,
      "''": 1675,
      "कनि": 1676,
      "गनाय": 1677,
      "गन्": 1678,
      "गले": 1679,
      "जय": 1680,
      "फानि": 1681,
      "फार्": 1682,
      "वानि": 1683,
      "सङो": 1684,
      "समान": 1685,
      "लाउ": 1686,
      "सिब": 1687,
      "गोथौ": 1688,
      "हास्": 1689,
      "मोनथि": 1690,
      "साम": 1691,
      "जोंहा": 1692,
      "जोंथि": 1693,
      "होआ": 1694,
      "फिन्": 1695,
      "साननि": 1696,
      "मेरे": 1697,
      "गावखौ": 1698,
      "गावखौनो": 1699,
      "थारगौ": 1700,
      "हायाव": 1701,
      "खालामनाय": 1702,
      "थुलुं": 1703,
      "लैथो": 1704,
      "फोथाय": 1705,
      "हुर": 1706,
      "जिउखौ": 1707,
      "ब्रु": 1708,
      "हाबाफारि": 1709,
      "ख्रु": 1710,
      "सोरनिबा": 1711,
      "दुखुनि": 1712,
      "गोरबोनि": 1713,
      "माब्लाब": 1714,
      "बड़": 1715,
      "मदद": 1716,
      "जिनाहारि": 1717,
      "बाकसा": 1718,
      "??": 1719,
      "एखन": 1720,
      "ख्रा": 1721,
      "जानि": 1722,
      "द्रि": 1723,
      "फ्रि": 1724,
      "फान्": 1725,
      "फ्ला": 1726,
      "बौ": 1727,
      "हं": 1728,
      "हानो": 1729,
      "सिगौ": 1730,
      "माल": 1731,
      "माहारि": 1732,
      "बेरे": 1733,
      "गोथां": 1734,
      "जाथि": 1735,
      "न्य": 1736,
      "दाका": 1737,
      "सोरजि": 1738,
      "गुसुं": 1739,
      "जेन्": 1740,
      "म्फा": 1741,
      "मेल": 1742,
      "मेथाइ": 1743,
      "देब": 1744,
      "खुसि": 1745,
      "खुलु": 1746,
      "हैदों": 1747,
      "हैयो": 1748,
      "स्ला": 1749,
      "सारनि": 1750,
      "थाखायनो": 1751,
      "जाब्र": 1752,
      "हारिमु": 1753,
      "मोन्नाय": 1754,
      "आनजाद": 1755,
      "खनसे": 1756,
      "गिदिर": 1757,
      "खोनासं": 1758,
      "मिहिर": 1759,
      "आलाइस्रिया": 1760,
      "च्छ": 1761,
      "हूं": 1762,
      "अब": 1763,
      "आध": 1764,
      "इयु": 1765,
      "ओइ": 1766,
      "खाइ": 1767,
      "घा": 1768,
      "रमा": 1769,
      "हʼ": 1770,
      "बिस": 1771,
      "बिमाय": 1772,
      "्रै": 1773,
      "बेथʼ": 1774,
      "गोजाम": 1775,
      "मोनै": 1776,
      "जाफुं": 1777,
      "आंखाल": 1778,
      "दागाब": 1779,
      "गिर": 1780,
      "जेब्ला": 1781,
      "ब्बाय": 1782,
      "गावजों": 1783,
      "हैनो": 1784,
      "थारनाय": 1785,
      "थारदों": 1786,
      "मावनाय": 1787,
      "लामायाव": 1788,
      "स्नि": 1789,
      "हाबनानै": 1790,
      "खैमोन": 1791,
      "नङामोन": 1792,
      "माब्ला": 1793,
      "्ली": 1794,
      "नुनो": 1795,
      "क्त": 1796,
      "अनलाय": 1797,
      "गांव": 1798,
      "हामजो": 1799,
      "गोरबोआव": 1800,
      "बिलिफां": 1801,
      "एफ्रिल": 1802,
      "बाजिबाय": 1803,
      "ट्रे": 1804,
      "गथʼवा": 1805,
      "मासिनि": 1806,
      "थेफेना": 1807,
      "बाथ्राया": 1808,
      "रोखोमनि": 1809,
      "202": 1810,
      "थुलुंगा": 1811,
      "आनो": 1812,
      "कं": 1813,
      "कौ": 1814,
      "कलि": 1815,
      "खारा": 1816,
      "ग्ला": 1817,
      "तो": 1818,
      "फब": 1819,
      "फानो": 1820,
      "रौ": 1821,
      "लारामा": 1822,
      "सक": 1823,
      "हान्थि": 1824,
      "।:": 1825,
      "बिबान": 1826,
      "बिहामजो": 1827,
      "नाइ": 1828,
      "सेन्": 1829,
      "जालांबाय": 1830,
      "साथाम": 1831,
      "खालामा": 1832,
      "दासो": 1833,
      "दासिमबो": 1834,
      "गुं": 1835,
      "गुदि": 1836,
      "गुवार": 1837,
      "फैफिन": 1838,
      "दुब": 1839,
      "मावो": 1840,
      "जुजि": 1841,
      "गोसोम": 1842,
      "गेव": 1843,
      "जानां": 1844,
      "हिन": 1845,
      "सिमला": 1846,
      "फोले": 1847,
      "फेरा": 1848,
      "खेर": 1849,
      "मिनिनाय": 1850,
      "हांखो": 1851,
      "लामाजों": 1852,
      "सान्थ्रि": 1853,
      "आखल": 1854,
      "बिदिनो": 1855,
      "जोबोत": 1856,
      "राइजोफोर": 1857,
      "समाजनि": 1858,
      "बिटिसि": 1859,
      "फार्से": 1860,
      "er": 1861,
      "असम": 1862,
      "उखै": 1863,
      "चु": 1864,
      "ज्र": 1865,
      "ढेकियाजुलि": 1866,
      "दर्": 1867,
      "फारा": 1868,
      "मंग": 1869,
      "रन्": 1870,
      "हले": 1871,
      "निजोम": 1872,
      "सिमा": 1873,
      "सिना": 1874,
      "सिखाव": 1875,
      "माँ": 1876,
      "गोब्र": 1877,
      "मोनहा": 1878,
      "थिङै": 1879,
      "दिल": 1880,
      "नोंजों": 1881,
      "दास": 1882,
      "दाबि": 1883,
      "मुला": 1884,
      "होदो": 1885,
      "साननानै": 1886,
      "मेन्ट": 1887,
      "मेरी": 1888,
      "देन": 1889,
      "जायै": 1890,
      "नांनाय": 1891,
      "थारगोन": 1892,
      "हरनो": 1893,
      "होनांगौ": 1894,
      "खैफोद": 1895,
      "गोरलै": 1896,
      "खालामबावनो": 1897,
      "गाबनो": 1898,
      "मानसिनि": 1899,
      "सान्दों": 1900,
      "बयनिबो": 1901,
      "सरकार": 1902,
      "उन्दुनो": 1903,
      "नागिरो": 1904,
      "बिफान": 1905,
      "सोलोंथाइ": 1906,
      "स्तान": 1907,
      "दानिया": 1908,
      "बान्था": 1909,
      "खालार": 1910,
      "गैयि": 1911,
      "अरुना": 1912,
      "मंत्री": 1913,
      "दिहुन": 1914,
      "जाब्रब": 1915,
      "कंग्रे": 1916,
      "अफि": 1917,
      "अनु": 1918,
      "उस": 1919,
      "एबसु": 1920,
      "गई": 1921,
      "गन": 1922,
      "गानो": 1923,
      "तू": 1924,
      "धन्य": 1925,
      "फʼ": 1926,
      "यन": 1927,
      "यारी": 1928,
      "रजे": 1929,
      "शन": 1930,
      "सल": 1931,
      "ोद": 1932,
      "लादों": 1933,
      "खौसे": 1934,
      "खौसो": 1935,
      "बेदि": 1936,
      "जाखां": 1937,
      "जाथों": 1938,
      "आंलाय": 1939,
      "सोमाव": 1940,
      "साथ": 1941,
      "थिक": 1942,
      "जिला": 1943,
      "बरा": 1944,
      "फोरजों": 1945,
      "लायदों": 1946,
      "राजि": 1947,
      "मिज": 1948,
      "मिल": 1949,
      "मिसन": 1950,
      "सोरगिदि": 1951,
      "जोब्बाय": 1952,
      "सैबारी": 1953,
      "फिना": 1954,
      "फिथाइ": 1955,
      "आवगाय": 1956,
      "हाबाया": 1957,
      "खालामगोन": 1958,
      "नेल": 1959,
      "रैखा": 1960,
      "बेसेबा": 1961,
      "लाना": 1962,
      "मोनाबिलि": 1963,
      "सोंबाय": 1964,
      "रामनाथ": 1965,
      "नʼवाव": 1966,
      "जेननाय": 1967,
      "कलेजाव": 1968,
      "बिसायखथि": 1969,
      "मीनारामा": 1970,
      "फालांगि": 1971,
      "इयुन": 1972,
      "धन्यवाद": 1973,
      "खराव": 1974,
      "गथ": 1975,
      "ज्ला": 1976,
      "जारी": 1977,
      "दहाय": 1978,
      "नानि": 1979,
      "बना": 1980,
      "मʼ": 1981,
      "मौ": 1982,
      "लक": 1983,
      "ायाबो": 1984,
      "बिजेपि": 1985,
      "ाब्लाबो": 1986,
      "नालि": 1987,
      "मोननायनि": 1988,
      "साजाय": 1989,
      "लियाव": 1990,
      "खादों": 1991,
      "गिया": 1992,
      "गियो": 1993,
      "गुरु": 1994,
      "थायखौ": 1995,
      "मुस्कु": 1996,
      "लेन्ड": 1997,
      "फिर": 1998,
      "्टि": 1999,
      "मेरा": 2000,
      "गावबा": 2001,
      "रावा": 2002,
      "दैनि": 2003,
      "नैथि": 2004,
      "नांदों": 2005,
      "थारला": 2006,
      "जुलाइ": 2007,
      ".........": 2008,
      "माना": 2009,
      "नेम": 2010,
      "गाबज्रि": 2011,
      "सारनाय": 2012,
      "ग्रानि": 2013,
      "ङैनो": 2014,
      "मोन्दां": 2015,
      "आयेन": 2016,
      "फ्राम": 2017,
      "थानायनि": 2018,
      "सोलायनाय": 2019,
      "फंबायखौ": 2020,
      "गोग्लैयो": 2021,
      "खानाइ": 2022,
      "लोरबां": 2023,
      "गोब्राब": 2024,
      "एसि": 2025,
      "खबर": 2026,
      "खाबाय": 2027,
      "गारा": 2028,
      "घन्ट": 2029,
      "ङाइ": 2030,
      "ड्र": 2031,
      "ण्ड": 2032,
      "थब": 2033,
      "थाना": 2034,
      "धु": 2035,
      "मां": 2036,
      "लक्ष": 2037,
      "वाबो": 2038,
      "समि": 2039,
      "हारी": 2040,
      "िक": 2041,
      "ोमा": 2042,
      "बिजों": 2043,
      "बिथाङा": 2044,
      "नाम": 2045,
      "नालाय": 2046,
      "बेखायनो": 2047,
      "जाम्बि": 2048,
      "सोरा": 2049,
      "गुफुर": 2050,
      "मुगै": 2051,
      "मुवा": 2052,
      "मुस्क": 2053,
      "होब": 2054,
      "फिसाय": 2055,
      "फिसाया": 2056,
      "खोला": 2057,
      "दंखायो": 2058,
      "दंबावो": 2059,
      "रावखौबो": 2060,
      "नैबे": 2061,
      "खिनि": 2062,
      "गोरि": 2063,
      "फ्राबो": 2064,
      "रांखौ": 2065,
      "गेदेर": 2066,
      "रुजु": 2067,
      "्लानो": 2068,
      "नुबाय": 2069,
      "नुयो": 2070,
      "गाबदों": 2071,
      "लैन्ड": 2072,
      "क्या": 2073,
      "जाबाव": 2074,
      "हारिखौ": 2075,
      "देरहानाय": 2076,
      "गंनै": 2077,
      "सानैजों": 2078,
      "आलेनि": 2079,
      "ंग्रि": 2080,
      "ग्लाब": 2081,
      "..........": 2082,
      "सिनायथि": 2083,
      "गसंनानै": 2084,
      "दमना": 2085,
      "संसाराव": 2086,
      "फावथाइनि": 2087,
      "श्व": 2088,
      "मीनाराम": 2089,
      "हार्सि": 2090,
      "गुन्दाया": 2091,
      "बड़ʼ": 2092,
      "मुस्कुरा": 2093,
      "मुस्कान": 2094,
      "__": 2095,
      "आलि": 2096,
      "आलाय": 2097,
      "आदै": 2098,
      "उद": 2099,
      "कत": 2100,
      "कन": 2101,
      "गाइ": 2102,
      "दारि": 2103,
      "पी": 2104,
      "यह": 2105,
      "सय": 2106,
      "सर्": 2107,
      "हय": 2108,
      "निमाहा": 2109,
      "बिब": 2110,
      "बिना": 2111,
      "बिबʼ": 2112,
      "नायनानै": 2113,
      "सेब": 2114,
      "सेव": 2115,
      "गोलै": 2116,
      "हादों": 2117,
      "हाजो": 2118,
      "हाजार": 2119,
      "मोननि": 2120,
      "साल": 2121,
      "बुङै": 2122,
      "थादो": 2123,
      "फोराबो": 2124,
      "गिनांगौ": 2125,
      "थायै": 2126,
      "जोलै": 2127,
      "होसो": 2128,
      "फिसौ": 2129,
      "रावनिबो": 2130,
      "रायजो": 2131,
      "रायज्लाय": 2132,
      "थारैनो": 2133,
      "स्लु": 2134,
      "होनना": 2135,
      "रुमाव": 2136,
      "थेर": 2137,
      "आइयै": 2138,
      "क्सा": 2139,
      "किसी": 2140,
      "सालियाव": 2141,
      "मोन्दों": 2142,
      "आलेखौ": 2143,
      "ओंखारदों": 2144,
      "हादोरसानि": 2145,
      "सरलाया": 2146,
      "महन": 2147,
      "गिदिद": 2148,
      "स्टे": 2149,
      "राजानि": 2150,
      "महरै": 2151,
      "साबसिन": 2152,
      "अन्थाइ": 2153,
      "हेंथायै": 2154,
      "उदांस्रि": 2155,
      "नागिरदों": 2156,
      "इन्दि": 2157,
      "देरहासार": 2158,
      "होन्नानै": 2159,
      "दखना": 2160,
      "लाराय": 2161,
      "ख्रुइ": 2162,
      "मुलाम्फा": 2163,
      "on": 2164,
      "अख्रां": 2165,
      "ओहो": 2166,
      "कह": 2167,
      "कृ": 2168,
      "खान्": 2169,
      "ट्": 2170,
      "दानाय": 2171,
      "दारा": 2172,
      "दाबु": 2173,
      "धो": 2174,
      "नखौ": 2175,
      "नारि": 2176,
      "नम्बर": 2177,
      "फौ": 2178,
      "भू": 2179,
      "वानो": 2180,
      "शी": 2181,
      "सभ": 2182,
      "बिबाय": 2183,
      "बिदाय": 2184,
      "सिला": 2185,
      "नाङो": 2186,
      "गोबा": 2187,
      "हाज": 2188,
      "हाग्रानि": 2189,
      "आंनाव": 2190,
      "खाउ": 2191,
      "नोंथाङा": 2192,
      "जिमा": 2193,
      "दाहार": 2194,
      "गाहाइ": 2195,
      "रोखा": 2196,
      "रोङै": 2197,
      "गुन": 2198,
      "लेखा": 2199,
      "फिसाइ": 2200,
      "सानफ्रोमबो": 2201,
      "दुलाराय": 2202,
      "आरोबाव": 2203,
      "गावबुर": 2204,
      "बुंनानै": 2205,
      "दैदेन": 2206,
      "हैदो": 2207,
      "नांबाय": 2208,
      "हरखाब": 2209,
      "माब्रै": 2210,
      "रुगुं": 2211,
      "काप": 2212,
      "खांनानै": 2213,
      "हुगार": 2214,
      "ओंथि": 2215,
      "जिउआव": 2216,
      "सावराय": 2217,
      "बेसेदि": 2218,
      "ग्लोब": 2219,
      "खोमदोन": 2220,
      "सोमखोर": 2221,
      "स्राव": 2222,
      "आनाराम": 2223,
      "माइथायाव": 2224,
      "फुंखा": 2225,
      "गोरबोआ": 2226,
      "सोनाब": 2227,
      "गाहायाव": 2228,
      "दुर्गा": 2229,
      "आखुवा": 2230,
      "नार्स": 2231,
      "सहेना": 2232,
      "बियाबाव": 2233,
      "दान्दिसे": 2234,
      "बेरेखा": 2235,
      "च्छा": 2236,
      "अनलायनायाव": 2237,
      "मंगल": 2238,
      "in": 2239,
      "अफ": 2240,
      "आफाया": 2241,
      "इसि": 2242,
      "इन्ट": 2243,
      "एर": 2244,
      "क्ल": 2245,
      "गानाय": 2246,
      "ङाबो": 2247,
      "जयो": 2248,
      "ट्रि": 2249,
      "थ्र": 2250,
      "दोना": 2251,
      "धन": 2252,
      "नाबो": 2253,
      "पल": 2254,
      "परि": 2255,
      "पार्": 2256,
      "पेन": 2257,
      "बथि": 2258,
      "रू": 2259,
      "लान्": 2260,
      "शु": 2261,
      "सप": 2262,
      "सफै": 2263,
      "सलपुर": 2264,
      "निनो": 2265,
      "बिदै": 2266,
      "बिथांखि": 2267,
      "लासे": 2268,
      "नायहर": 2269,
      "बोसोन": 2270,
      "यालाय": 2271,
      "जालां": 2272,
      "दोंसे": 2273,
      "दिस": 2274,
      "न्दु": 2275,
      "गोनो": 2276,
      "फोर्बो": 2277,
      "गिख्र": 2278,
      "मुर": 2279,
      "मुसलपुर": 2280,
      "मेहेर": 2281,
      "रावनि": 2282,
      "दैमारि": 2283,
      "थारो": 2284,
      "जुरि": 2285,
      "हाबानि": 2286,
      "माने": 2287,
      "फ्रु": 2288,
      "नेर": 2289,
      "बारे": 2290,
      "रुपा": 2291,
      "काम": 2292,
      "नुवा": 2293,
      "दाननि": 2294,
      "ग्राया": 2295,
      "ग्रोम": 2296,
      "गारां": 2297,
      "थैनाय": 2298,
      "टिभ": 2299,
      "हादर": 2300,
      "थावनि": 2301,
      "एसेबो": 2302,
      "जायाखिसै": 2303,
      "ग्लाय": 2304,
      "बानानि": 2305,
      "मोनाखै": 2306,
      "मोनाखिसै": 2307,
      "पास": 2308,
      "गोजोनै": 2309,
      "हादोरसा": 2310,
      "हार्ट": 2311,
      "थोनो": 2312,
      "बसुमतारि": 2313,
      "बिसिखौ": 2314,
      "थानानै": 2315,
      "सांग्रा": 2316,
      "गʼसाइ": 2317,
      "आलादा": 2318,
      "बुङाखिसै": 2319,
      "बुहुमनि": 2320,
      "सोमोन्दै": 2321,
      "गैयाब्ला": 2322,
      "नखराव": 2323,
      "आर्मि": 2324,
      "फोनां": 2325,
      "सरकारा": 2326,
      "रन्जन": 2327,
      "गिख्रं": 2328,
      "अबं": 2329,
      "आस": 2330,
      "आलो": 2331,
      "आगोर": 2332,
      "ओरैनो": 2333,
      "कर्": 2334,
      "खथायाव": 2335,
      "गसङो": 2336,
      "छो": 2337,
      "जाइ": 2338,
      "दनि": 2339,
      "पह": 2340,
      "पाब": 2341,
      "फर": 2342,
      "फायाव": 2343,
      "मारी": 2344,
      "याया": 2345,
      "रान्": 2346,
      "वान": 2347,
      "वाया": 2348,
      "सरा": 2349,
      "साबाय": 2350,
      "सभा": 2351,
      "…..": 2352,
      "ाने": 2353,
      "बिजि": 2354,
      "बिथा": 2355,
      "नायसै": 2356,
      "बोदों": 2357,
      "बेसाद": 2358,
      "गोयै": 2359,
      "मोनब्ला": 2360,
      "सोद्र": 2361,
      "बागान": 2362,
      "थिनो": 2363,
      "नोंनाव": 2364,
      "जोंरु": 2365,
      "जिबौ": 2366,
      "गाल": 2367,
      "राष्ट": 2368,
      "्राम": 2369,
      "गुसु": 2370,
      "सैबा": 2371,
      "होवा": 2372,
      "फाहाम": 2373,
      "थांदिनि": 2374,
      "साननो": 2375,
      "मेडि": 2376,
      "आवनो": 2377,
      "रावाव": 2378,
      "दैजों": 2379,
      "खुम": 2380,
      "खुगायाव": 2381,
      "जायखौ": 2382,
      "नङालै": 2383,
      "नेट": 2384,
      "बाराव": 2385,
      "फुजा": 2386,
      "गाबा": 2387,
      "सारे": 2388,
      "दावराव": 2389,
      "हिसाब": 2390,
      "दिनैनि": 2391,
      "निफ्रायनो": 2392,
      "फेलें": 2393,
      "नंला": 2394,
      "फिननाय": 2395,
      "मिनियो": 2396,
      "सायाराम": 2397,
      "हामबाय": 2398,
      "आयदा": 2399,
      "बाना": 2400,
      "बेनिखायनो": 2401,
      "सान्जा": 2402,
      "महना": 2403,
      "फुंनि": 2404,
      "खावरि": 2405,
      "बरʼनि": 2406,
      "नङाना": 2407,
      "आफादआ": 2408,
      "दोलोनि": 2409,
      "नार्जारि": 2410,
      "रजिया": 2411,
      "सिखारबाय": 2412,
      "लाबोन": 2413,
      "अरायबो": 2414,
      "रेलगारि": 2415,
      "होन्ना": 2416,
      "खेबसे": 2417,
      "मेलेम": 2418,
      "घन्टा": 2419,
      "दाबुं": 2420,
      "गिख्रंथाव": 2421,
      "ar": 2422,
      "ti": 2423,
      "ंगे": 2424,
      "औवा": 2425,
      "कोर": 2426,
      "गम": 2427,
      "चार": 2428,
      "जब": 2429,
      "टʼ": 2430,
      "थन": 2431,
      "थी": 2432,
      "नभ": 2433,
      "भाइ": 2434,
      "मक": 2435,
      "मख": 2436,
      "रन": 2437,
      "वी": 2438,
      "वारी": 2439,
      "शान्": 2440,
      "्य": 2441,
      "बिबुं": 2442,
      "बिमुं": 2443,
      "बिखानि": 2444,
      "नायगिर": 2445,
      "नाजाबाय": 2446,
      "बेद": 2447,
      "बेलाय": 2448,
      "बेंग": 2449,
      "गोगो": 2450,
      "गोसा": 2451,
      "जाग्रा": 2452,
      "थिखा": 2453,
      "लिनि": 2454,
      "खागोन": 2455,
      "बुजाय": 2456,
      "दाहो": 2457,
      "लायै": 2458,
      "लायखो": 2459,
      "रोङा": 2460,
      "गिनो": 2461,
      "गुस्": 2462,
      "मुखु": 2463,
      "मोल": 2464,
      "मोदाइ": 2465,
      "लेब": 2466,
      "फैदोंमोन": 2467,
      "दुब्लि": 2468,
      "दोम": 2469,
      "खुर": 2470,
      "जायगायाव": 2471,
      "थारसै": 2472,
      "हरदम": 2473,
      "मावनानै": 2474,
      "लामानि": 2475,
      "गोरान": 2476,
      "गें": 2477,
      "बिनिखायनो": 2478,
      "गाबनि": 2479,
      "जायोब्ला": 2480,
      "मानोबा": 2481,
      "ग्राफ": 2482,
      "फोथार": 2483,
      "हुस": 2484,
      "हुदा": 2485,
      "थें": 2486,
      "मैया": 2487,
      "पुराव": 2488,
      "पिता": 2489,
      "पिएल": 2490,
      "बादिब्ला": 2491,
      "अनलाइन": 2492,
      "सावथुन": 2493,
      "मिनिस्लु": 2494,
      "मानसिफोरा": 2495,
      "गोनांथार": 2496,
      "कोई": 2497,
      "बानानै": 2498,
      "दायखौ": 2499,
      "मोनाम": 2500,
      "सोंलु": 2501,
      "दुखुजों": 2502,
      "मेगननि": 2503,
      "थांखिया": 2504,
      "बोसोराव": 2505,
      "जारौ": 2506,
      "त्व": 2507,
      "खौरांगिरि": 2508,
      "थानांगोन": 2509,
      "बोथोरनि": 2510,
      "मन्थ्रि": 2511,
      "पुलिसनि": 2512,
      "रोंगौ": 2513,
      "नोंथांनि": 2514,
      "बोरैबा": 2515,
      "फोरोंगिरि": 2516,
      "कार्ड": 2517,
      "रागाजों": 2518,
      "हारसिङै": 2519,
      "गोख्रै": 2520,
      "सोलेर": 2521,
      "तरह": 2522,
      "ष्ण": 2523,
      "रुवाथि": 2524,
      "बैसागुनि": 2525,
      "एखनब्ला": 2526,
      "दिल्ली": 2527,
      "नभेम्बर": 2528,
      "आमाय": 2529,
      "आसारि": 2530,
      "आदाया": 2531,
      "इनायनो": 2532,
      "कम्": 2533,
      "कान्": 2534,
      "खानो": 2535,
      "गला": 2536,
      "गथाय": 2537,
      "जं": 2538,
      "टन": 2539,
      "टर": 2540,
      "दब": 2541,
      "पति": 2542,
      "भकत": 2543,
      "मबर": 2544,
      "मरि": 2545,
      "रण": 2546,
      "सू": 2547,
      "हज्रि": 2548,
      "्बाय": 2549,
      "निय": 2550,
      "बिस्व": 2551,
      "लाला": 2552,
      "लाखौ": 2553,
      "लादोंमोन": 2554,
      "सिथ": 2555,
      "नायबो": 2556,
      "माला": 2557,
      "मादै": 2558,
      "बेला": 2559,
      "बेन्": 2560,
      "सेनि": 2561,
      "जासिगोन": 2562,
      "सोब": 2563,
      "सोलो": 2564,
      "सोङो": 2565,
      "बामु": 2566,
      "बाया": 2567,
      "बायनो": 2568,
      "बायबाय": 2569,
      "नोंगौ": 2570,
      "जिसे": 2571,
      "बुदों": 2572,
      "दासि": 2573,
      "दालाय": 2574,
      "गाखोन": 2575,
      "गाथोन": 2576,
      "सोरनो": 2577,
      "सोरजों": 2578,
      "गिलिर": 2579,
      "गुरै": 2580,
      "सुबु": 2581,
      "होदोंमोन": 2582,
      "होम्बा": 2583,
      "फिथाय": 2584,
      "साननाय": 2585,
      "देहानि": 2586,
      "रावखौ": 2587,
      "बुंगोन": 2588,
      "दैमा": 2589,
      "खुन": 2590,
      "खुन्": 2591,
      "लांदां": 2592,
      "लोग": 2593,
      "जुदा": 2594,
      "लामाया": 2595,
      "हाबलाङो": 2596,
      ".......": 2597,
      "बावबाय": 2598,
      "बावगोन": 2599,
      "बैथा": 2600,
      "केरानि": 2601,
      "नेश": 2602,
      "बाराय": 2603,
      "थुदो": 2604,
      "हेलाराम": 2605,
      "फुट": 2606,
      "फुद": 2607,
      "फुजि": 2608,
      "जानुवारी": 2609,
      "जौखोन्दो": 2610,
      "जोबनो": 2611,
      "जोबगोन": 2612,
      "आइनि": 2613,
      "हमथा": 2614,
      "जानोसै": 2615,
      "पिपिएल": 2616,
      "थैनि": 2617,
      "टिस": 2618,
      "बोराया": 2619,
      "फरायो": 2620,
      "फरायनाय": 2621,
      "नंमार": 2622,
      "सायारामा": 2623,
      "लोंनो": 2624,
      "प्रधान": 2625,
      "गाना": 2626,
      "आयʼ": 2627,
      "मलेननि": 2628,
      "कुछ": 2629,
      "दायनि": 2630,
      "माबादि": 2631,
      "टेन": 2632,
      "लुबैया": 2633,
      "अपना": 2634,
      "पर्ट": 2635,
      ".....!": 2636,
      "इउपिपिएल": 2637,
      "खाफालाव": 2638,
      "बिबारनि": 2639,
      "मनजुवा": 2640,
      "ुवारि": 2641,
      "डाउन": 2642,
      "बाइदि": 2643,
      "कराझाराव": 2644,
      "नार्जारी": 2645,
      "गेजेरजों": 2646,
      "प्यार": 2647,
      "सिखारो": 2648,
      "येल": 2649,
      "आलाइस्रि": 2650,
      "बुहुम": 2651,
      "देहाखौ": 2652,
      "हान्जा": 2653,
      "ओनसोलाव": 2654,
      "अमला": 2655,
      "इराग्दावा": 2656,
      "राज्योनि": 2657,
      "आद्रा": 2658,
      "दाकात": 2659,
      "खुलुम": 2660,
      "आधार": 2661,
      "दागाबसै": 2662,
      "ड्रइं": 2663,
      "मेहेरसि": 2664,
      "मुखुब": 2665,
      "नंमारगौ": 2666,
      "ंगा": 2667,
      "अʼ": 2668,
      "अना": 2669,
      "अजा": 2670,
      "आगो": 2671,
      "कभी": 2672,
      "खत": 2673,
      "गया": 2674,
      "जनि": 2675,
      "त्रा": 2676,
      "थ्रा": 2677,
      "थानि": 2678,
      "दन्दा": 2679,
      "धा": 2680,
      "धोन": 2681,
      "पाइ": 2682,
      "प्रि": 2683,
      "फल": 2684,
      "बच्": 2685,
      "यां": 2686,
      "रना": 2687,
      "लख": 2688,
      "श्री": 2689,
      "सला": 2690,
      "साबो": 2691,
      "हजों": 2692,
      "ेरै": 2693,
      "बिधान": 2694,
      "सिखौ": 2695,
      "सिलि": 2696,
      "बोल": 2697,
      "नाजा": 2698,
      "नाजाव": 2699,
      "बेफोरखौ": 2700,
      "बेदर": 2701,
      "बेलायाव": 2702,
      "सेन": 2703,
      "मोनबो": 2704,
      "मोनदां": 2705,
      "मोनथिया": 2706,
      "आंहाबो": 2707,
      "सोमोन": 2708,
      "बाला": 2709,
      "बादों": 2710,
      "बाहे": 2711,
      "बासिया": 2712,
      "बाक्सा": 2713,
      "साजा": 2714,
      "नोंसो": 2715,
      "दाखालाम": 2716,
      "दाहानि": 2717,
      "दाहोना": 2718,
      "लायगोन": 2719,
      "सोरखारा": 2720,
      "जेसे": 2721,
      "मुसु": 2722,
      "होयै": 2723,
      "ब्ल": 2724,
      "फिसानि": 2725,
      "सानदोंमोन": 2726,
      "दुगै": 2727,
      "आवा": 2728,
      "बुंहरबाय": 2729,
      "खुरै": 2730,
      "लांनांगौ": 2731,
      "वालि": 2732,
      "रायाव": 2733,
      "बैठ": 2734,
      "रांखान्थि": 2735,
      "लाइसि": 2736,
      "गिरिया": 2737,
      "बिनिफ्राय": 2738,
      "र्मा": 2739,
      "बिसोरहा": 2740,
      "जौनि": 2741,
      "लिरनाय": 2742,
      "गारनो": 2743,
      "फेर": 2744,
      "बोराइ": 2745,
      "न्दर": 2746,
      "फिसाज्ला": 2747,
      "उनावनो": 2748,
      "देरसिन": 2749,
      "सननि": 2750,
      "सुबुंफोरा": 2751,
      "करना": 2752,
      "सासेलʼ": 2753,
      "थोंजों": 2754,
      "गसाइया": 2755,
      "टीसी": 2756,
      "थाबावनो": 2757,
      "लायाखै": 2758,
      "ओंखारबाय": 2759,
      "बिमाखौ": 2760,
      "गोजोननाय": 2761,
      "हादोरनि": 2762,
      "बेखौबो": 2763,
      "माइनाव": 2764,
      "मेगना": 2765,
      "बेनोथʼ": 2766,
      "गरम": 2767,
      "हायोब्ला": 2768,
      "भारतनि": 2769,
      "थोनाय": 2770,
      "ट्राय": 2771,
      "खामानियाव": 2772,
      "अन्नाय": 2773,
      "थानांगौ": 2774,
      "बोथोरा": 2775,
      "मिजिं": 2776,
      "सोलोंथाय": 2777,
      "आथिखा": 2778,
      "बिथांआ": 2779,
      "लासैनो": 2780,
      "मोखाङा": 2781,
      "जिल्लानि": 2782,
      "सांग्रांथि": 2783,
      "सहायनो": 2784,
      "गोख्रों": 2785,
      "आबादारिनि": 2786,
      "ख्लं": 2787,
      "हास्थाय": 2788,
      "माब्लाबानो": 2789,
      "फेराखै": 2790,
      "बिफाननि": 2791,
      "कंग्रेस": 2792,
      "गोरिब": 2793,
      "कृष्ण": 2794,
      "पार्ति": 2795,
      "पाब्लि": 2796,
      "अमा": 2797,
      "असे": 2798,
      "अराइ": 2799,
      "आया": 2800,
      "आबा": 2801,
      "आग्": 2802,
      "आदार": 2803,
      "एरै": 2804,
      "गस्ला": 2805,
      "चल": 2806,
      "चाय": 2807,
      "जना": 2808,
      "जरा": 2809,
      "जनानै": 2810,
      "धि": 2811,
      "धे": 2812,
      "धोरोम": 2813,
      "प्ला": 2814,
      "बल": 2815,
      "ब्रि": 2816,
      "राब": 2817,
      "रबिबार": 2818,
      "वर्": 2819,
      "सह": 2820,
      "सम्": 2821,
      "हन": 2822,
      "हबे": 2823,
      "ाखै": 2824,
      "ानानै": 2825,
      "निउ": 2826,
      "बिखु": 2827,
      "लाभ": 2828,
      "लाती": 2829,
      "खौथʼ": 2830,
      "सिल": 2831,
      "नायजाब": 2832,
      "नाग्रि": 2833,
      "बेरा": 2834,
      "सेल": 2835,
      "सेना": 2836,
      "गोद": 2837,
      "जालि": 2838,
      "बास": 2839,
      "थिग": 2840,
      "थिसन": 2841,
      "लिक": 2842,
      "जोंबाय": 2843,
      "जोंथिखौ": 2844,
      "जिया": 2845,
      "जिरा": 2846,
      "बुरि": 2847,
      "बुरै": 2848,
      "न्त": 2849,
      "बर्": 2850,
      "बरमा": 2851,
      "गासे": 2852,
      "लायाबो": 2853,
      "ारिया": 2854,
      "गुड": 2855,
      "मुस्रि": 2856,
      "सुख": 2857,
      "लेट": 2858,
      "ब्लाय": 2859,
      "दुसि": 2860,
      "मेना": 2861,
      "देम": 2862,
      "देह": 2863,
      "दंसै": 2864,
      "रावआव": 2865,
      "नैसो": 2866,
      "लांनानै": 2867,
      "लांनोसै": 2868,
      "हैगोन": 2869,
      "हरदो": 2870,
      "मावदों": 2871,
      "होनब्ला": 2872,
      "बावदा": 2873,
      "फ्राइ": 2874,
      "बारग": 2875,
      "बारजों": 2876,
      "समझ": 2877,
      "थुना": 2878,
      "हेलारामा": 2879,
      "नुजा": 2880,
      "दानाव": 2881,
      "जानांगोन": 2882,
      "थाइनि": 2883,
      "तागुरि": 2884,
      "ग्राब": 2885,
      "फोथै": 2886,
      "फोलाव": 2887,
      "हुं": 2888,
      "रेगा": 2889,
      "मैहुर": 2890,
      "दिनैबो": 2891,
      "जाबावनो": 2892,
      "हांगार": 2893,
      "तितागुरि": 2894,
      "गाननाया": 2895,
      "दोनथʼ": 2896,
      "सासेबो": 2897,
      "सान्नाय": 2898,
      "सोंनाय": 2899,
      "रंजानाय": 2900,
      "तेज": 2901,
      "टेबि": 2902,
      "टेबिल": 2903,
      "खावसे": 2904,
      "नʼनि": 2905,
      "नʼखराव": 2906,
      "खोनाबाय": 2907,
      "स्टार": 2908,
      "थामथि": 2909,
      "बिनहारी": 2910,
      "सोनानै": 2911,
      ".....।": 2912,
      "ट्री": 2913,
      "होनायनि": 2914,
      "गंसेबो": 2915,
      "हिन्दु": 2916,
      "गोजौवाव": 2917,
      "इन्डि": 2918,
      "रंजालिया": 2919,
      "लाखिनो": 2920,
      "लाखियो": 2921,
      "मदन": 2922,
      "आइजोनि": 2923,
      "बंध": 2924,
      "बीटीसी": 2925,
      "बोहैथि": 2926,
      "************************": 2927,
      "कार्बि": 2928,
      "जाथारदों": 2929,
      "स्कुल": 2930,
      "एरैनोथʼ": 2931,
      "आनारीया": 2932,
      "एफाग्राफ": 2933,
      "क्रे": 2934,
      "रेबती": 2935,
      "स्रीया": 2936,
      "बानायनाय": 2937,
      "जोबाखै": 2938,
      "होमब्ला": 2939,
      "++++++++": 2940,
      "नेवसि": 2941,
      "गन्थं": 2942,
      "माब्लाबाबो": 2943,
      "ङाइगाव": 2944,
      "थबसि": 2945,
      "हार्सिङै": 2946,
      "गाइखेर": 2947,
      "महनलाला": 2948,
      "इन्दिस्री": 2949,
      "गावबुराया": 2950,
      "बिखुङाव": 2951,
      "नाग्रिजुलि": 2952,
      "),": 2953,
      ":...": 2954,
      "ंड": 2955,
      "अक्त": 2956,
      "आज": 2957,
      "आसु": 2958,
      "आङो": 2959,
      "आहार": 2960,
      "आफानि": 2961,
      "इम": 2962,
      "उननि": 2963,
      "उल्": 2964,
      "एं": 2965,
      "कॉ": 2966,
      "खरा": 2967,
      "गमा": 2968,
      "घर": 2969,
      "ङाब्ला": 2970,
      "टं": 2971,
      "टखौ": 2972,
      "थल": 2973,
      "दल": 2974,
      "दस": 2975,
      "पारा": 2976,
      "बन्": 2977,
      "बनानै": 2978,
      "भग": 2979,
      "मण": 2980,
      "मल": 2981,
      "महि": 2982,
      "मती": 2983,
      "मबाइ": 2984,
      "रोन": 2985,
      "वै": 2986,
      "सारा": 2987,
      "साबा": 2988,
      "ें": 2989,
      "ड़ा": 2990,
      "निक": 2991,
      "बिजौ": 2992,
      "बिहाव": 2993,
      "सिलाइ": 2994,
      "सिनाया": 2995,
      "नायगोन": 2996,
      "बेराम": 2997,
      "गोजाव": 2998,
      "हामा": 2999,
      "हाजे": 3000,
      "हाबिल": 3001,
      "बाउ": 3002,
      "थिर": 3003,
      "थिना": 3004,
      "लिबान": 3005,
      "...!": 3006,
      "जोंनाव": 3007,
      "थादों": 3008,
      "थागिबि": 3009,
      "फोरजा": 3010,
      "रासि": 3011,
      "मिट": 3012,
      "सोरखार": 3013,
      "गिला": 3014,
      "गिथाव": 3015,
      "गुमुर": 3016,
      "जेनो": 3017,
      "होग्रा": 3018,
      "फाफि": 3019,
      "फाग्ला": 3020,
      "म्ह": 3021,
      "सानजा": 3022,
      "साननाया": 3023,
      "मेन": 3024,
      "मेदि": 3025,
      "आवबो": 3026,
      "दैथाय": 3027,
      "नांला": 3028,
      "हरे": 3029,
      "हरनाय": 3030,
      "मावथि": 3031,
      "जुर": 3032,
      "हाबनाय": 3033,
      "बावनानै": 3034,
      "मानानै": 3035,
      "फ्राव": 3036,
      "केस": 3037,
      "समाया": 3038,
      "थुंग्रि": 3039,
      "गिरिनि": 3040,
      "फुल": 3041,
      "फुनाय": 3042,
      "्लाई": 3043,
      "तालिबान": 3044,
      "ग्रु": 3045,
      "मैगं": 3046,
      "आइदिया": 3047,
      "आइएन": 3048,
      "हमारी": 3049,
      "थैया": 3050,
      "बादिनो": 3051,
      "ब्रम्ह": 3052,
      "लोगोनि": 3053,
      "क्सि": 3054,
      "अनसुलि": 3055,
      "फिननो": 3056,
      "लाबोबाय": 3057,
      "खरसा": 3058,
      "हाद्रि": 3059,
      "हादरनि": 3060,
      "मनट्री": 3061,
      "लोंनाय": 3062,
      "लोंनानै": 3063,
      "सालिनि": 3064,
      "स्रो": 3065,
      "स्राय": 3066,
      "आयजो": 3067,
      "कुर": 3068,
      "दोन्": 3069,
      "मारो": 3070,
      "मारबाय": 3071,
      "पाल": 3072,
      "पाकि": 3073,
      "रंग": 3074,
      "थाबाव": 3075,
      "खाथिनि": 3076,
      "आनान": 3077,
      "लानानैनो": 3078,
      "फांथे": 3079,
      "फुंबिलि": 3080,
      "फंसेबो": 3081,
      "लुबैनाय": 3082,
      "थामहिन": 3083,
      "अपनी": 3084,
      "नोंसोरनो": 3085,
      "त्त": 3086,
      "गोहोआ": 3087,
      "खुंगुर": 3088,
      "इसारा": 3089,
      "मोदोमाव": 3090,
      "दाइरि": 3091,
      "नागिरनानै": 3092,
      "बहाथो": 3093,
      "मुलुगाव": 3094,
      "मन्जु": 3095,
      "हिन्जावसा": 3096,
      "रोंबाय": 3097,
      "आफादनि": 3098,
      "आफादगिरि": 3099,
      "बोनो": 3100,
      "गोमोर": 3101,
      "मुलुगनि": 3102,
      "मोजाङैनो": 3103,
      "साख्रिनि": 3104,
      "हराखै": 3105,
      "आन्था": 3106,
      "आन्दो": 3107,
      "ओनसोल": 3108,
      "फागुननि": 3109,
      "फ्लेनाय": 3110,
      "जागायनाय": 3111,
      "रुंसारि": 3112,
      "गनायथि": 3113,
      "कौटि": 3114,
      "फोलेर": 3115,
      "सोमावसारनाय": 3116,
      "सयथि": 3117,
      "लान्दां": 3118,
      "सोद्रोमा": 3119,
      "कोरोना": 3120,
      "शान्ति": 3121,
      "नेशनेल": 3122,
      ",-": 3123,
      "30": 3124,
      "en": 3125,
      "ot": 3126,
      "अर्": 3127,
      "अन्दर": 3128,
      "आसि": 3129,
      "आबारी": 3130,
      "आच्छा": 3131,
      "एजि": 3132,
      "कै": 3133,
      "क्रि": 3134,
      "खी": 3135,
      "गब": 3136,
      "गानै": 3137,
      "गलʼ": 3138,
      "गार्": 3139,
      "ङि": 3140,
      "जत": 3141,
      "ज्राम": 3142,
      "टक": 3143,
      "टस": 3144,
      "टु": 3145,
      "डाव": 3146,
      "णी": 3147,
      "थाबो": 3148,
      "दय": 3149,
      "दन्द": 3150,
      "नब": 3151,
      "नौ": 3152,
      "पो": 3153,
      "पजि": 3154,
      "प्ल": 3155,
      "फ्ल": 3156,
      "बट": 3157,
      "बङाइगाव": 3158,
      "महा": 3159,
      "मपुर": 3160,
      "मटर": 3161,
      "रज": 3162,
      "रथʼ": 3163,
      "रही": 3164,
      "लख्र": 3165,
      "वाब": 3166,
      "वार्": 3167,
      "हाराम": 3168,
      "्लु": 3169,
      "।[": 3170,
      "’...": 3171,
      "ायानो": 3172,
      "निखावरि": 3173,
      "ारे": 3174,
      "बिनाय": 3175,
      "बिया": 3176,
      "बिगुर": 3177,
      "नोम": 3178,
      "लाल": 3179,
      "बेग": 3180,
      "हाथ": 3181,
      "हामो": 3182,
      "जाथाया": 3183,
      "जागौमोन": 3184,
      "साखि": 3185,
      "थिलि": 3186,
      "जिस": 3187,
      "जिनि": 3188,
      "योजना": 3189,
      "दाजाब": 3190,
      "गाम्": 3191,
      "फोरनो": 3192,
      "राग": 3193,
      "राज्": 3194,
      "राखाउ": 3195,
      "ारिनि": 3196,
      "मिलि": 3197,
      "गुलि": 3198,
      "जेथो": 3199,
      "जोला": 3200,
      "मुखा": 3201,
      "सुआ": 3202,
      "सुमि": 3203,
      "सुवा": 3204,
      "सुदेम": 3205,
      "लेक": 3206,
      "फादोर": 3207,
      "दुर": 3208,
      "मेने": 3209,
      "गावबो": 3210,
      "गावस्रा": 3211,
      "बुंनांगौ": 3212,
      "जायनि": 3213,
      "नांथारगौ": 3214,
      "खिर": 3215,
      "रायजित": 3216,
      "थारलिया": 3217,
      "लोङो": 3218,
      "मावग्रा": 3219,
      "स्ति": 3220,
      "हायाब्ला": 3221,
      "हाब्र": 3222,
      "हाबबोयो": 3223,
      "होनांगोन": 3224,
      "लुनाय": 3225,
      "केन": 3226,
      "नेबाय": 3227,
      "नेनानै": 3228,
      "बारु": 3229,
      "बारबाय": 3230,
      "रुमा": 3231,
      "गिरिफोरा": 3232,
      "हेला": 3233,
      "कासारनि": 3234,
      "नुथाय": 3235,
      "गाबै": 3236,
      "गाबनाय": 3237,
      "दाना": 3238,
      "दानबान्था": 3239,
      "सारखौ": 3240,
      "दावहानि": 3241,
      "थोब": 3242,
      "बिसोरबो": 3243,
      "क्टर": 3244,
      "ग्रोन": 3245,
      "मैदेर": 3246,
      "पुरा": 3247,
      "हमनाय": 3248,
      "फरायजेननाय": 3249,
      "क्यों": 3250,
      "नंथारगौ": 3251,
      "हारिया": 3252,
      "ग्लांनाय": 3253,
      "बादलनि": 3254,
      "जावलिया": 3255,
      "सोमखे": 3256,
      "ख्रे": 3257,
      "दोननाय": 3258,
      "ज्लि": 3259,
      "थाबै": 3260,
      "गोजोननि": 3261,
      "हादोरारि": 3262,
      "फांनि": 3263,
      "उन्दुलां": 3264,
      "भारती": 3265,
      "फंसे": 3266,
      "लुबैदों": 3267,
      "समाजाव": 3268,
      "त्य": 3269,
      "बारियाव": 3270,
      "बेलस्रिया": 3271,
      "सलʼमा": 3272,
      "मोदैखौ": 3273,
      "फारनै": 3274,
      "जोरा": 3275,
      "बिफाया": 3276,
      "अन्थाय": 3277,
      "अन्जिमा": 3278,
      "खुंथायनि": 3279,
      "थौबाय": 3280,
      "मासिः": 3281,
      "बिलाइनि": 3282,
      "थाखोयाव": 3283,
      "मन्त": 3284,
      "मालायनि": 3285,
      "ख्लो": 3286,
      "बान्दा": 3287,
      "सुंदʼ": 3288,
      "बिब्दिनो": 3289,
      "बुजिनो": 3290,
      "बुजिबाय": 3291,
      "बिफाजों": 3292,
      "गानिस्तान": 3293,
      "साहाखौ": 3294,
      "फरायसालिया": 3295,
      "सोमबोरा": 3296,
      "उदुवा": 3297,
      "गुबैयै": 3298,
      "पार्ट": 3299,
      "थुनलाइयारि": 3300,
      "सोरांनि": 3301,
      "सैथोनि": 3302,
      "बुहुमाव": 3303,
      "लानायनि": 3304,
      "गोजांस्रि": 3305,
      "थरथि": 3306,
      "बुब्लिनि": 3307,
      "फोसावनाय": 3308,
      "बबेखानि": 3309,
      "बिटिआर": 3310,
      "हानजा": 3311,
      "गोजानाव": 3312,
      "लाइजामखौ": 3313,
      "जारिमिनारि": 3314,
      "अनाथीया": 3315,
      "बेबादिनो": 3316,
      "फालांगिरि": 3317,
      "जाबोदों": 3318,
      "बाजुराम": 3319,
      "खुलुमो": 3320,
      "हिनजाव": 3321,
      "लकडाउन": 3322,
      "फ्रामबो": 3323,
      "खबरदार": 3324,
      "सोराङा": 3325,
      "श्वर": 3326,
      "होवाखिसै": 3327,
      "कान्त": 3328,
      "बामुन": 3329,
      "प्रधानमंत्री": 3330,
      "ट्रायबेल": 3331,
      "सेनापति": 3332,
      "अक्तबर": 3333,
      "मेदिकेल": 3334,
      "एजिपि": 3335,
      "गाम्बारि": 3336,
      "om": 3337,
      "अदालगुरि": 3338,
      "आई": 3339,
      "आम": 3340,
      "आक्रा": 3341,
      "एइ": 3342,
      "एन्": 3343,
      "एमाव": 3344,
      "एका": 3345,
      "खल": 3346,
      "गगै": 3347,
      "गड़": 3348,
      "जम्": 3349,
      "जराय": 3350,
      "जथʼ": 3351,
      "टारि": 3352,
      "ट्रा": 3353,
      "ड्रा": 3354,
      "ढ़": 3355,
      "तं": 3356,
      "दाबाय": 3357,
      "धर्": 3358,
      "नरे": 3359,
      "पान": 3360,
      "पन्": 3361,
      "फबनाय": 3362,
      "बत": 3363,
      "बानो": 3364,
      "बखि": 3365,
      "बबेनि": 3366,
      "बबेयाव": 3367,
      "मथ": 3368,
      "रम": 3369,
      "रहा": 3370,
      "रमाय": 3371,
      "सभी": 3372,
      "होर": 3373,
      "हमे": 3374,
      "होरोम": 3375,
      "ेल": 3376,
      "बिबा": 3377,
      "बिगुमै": 3378,
      "बिगोमा": 3379,
      "बिग्राय": 3380,
      "लादो": 3381,
      "खौलʼ": 3382,
      "सिखा": 3383,
      "सिन्दु": 3384,
      "नायदों": 3385,
      "मास": 3386,
      "मादि": 3387,
      "माजि": 3388,
      "बोखां": 3389,
      "नाङै": 3390,
      "नाजागोन": 3391,
      "बेजों": 3392,
      "बेजाय": 3393,
      "बेगर": 3394,
      "गोल": 3395,
      "गोथो": 3396,
      "हालो": 3397,
      "हालु": 3398,
      "हालिया": 3399,
      "हाजासे": 3400,
      "मोनाबो": 3401,
      "जाखौ": 3402,
      "जासिम": 3403,
      "जालिया": 3404,
      "जाहोनो": 3405,
      "सोङा": 3406,
      "बाल": 3407,
      "साग्लोब": 3408,
      "दोंसो": 3409,
      "दिदोम": 3410,
      "लिद": 3411,
      "बुथार": 3412,
      "दालि": 3413,
      "दासान": 3414,
      "दालाइ": 3415,
      "मिटि": 3416,
      "सोर्": 3417,
      "रोदा": 3418,
      "ानिफ्राय": 3419,
      "जोङो": 3420,
      "सैनाय": 3421,
      "होगा": 3422,
      "फैनाय": 3423,
      "फैनानै": 3424,
      "फैनाया": 3425,
      "खोथाया": 3426,
      "दोहौ": 3427,
      "दोहोरोम": 3428,
      "देग्लाय": 3429,
      "आवग्रि": 3430,
      "रावसोलायनाय": 3431,
      "दैया": 3432,
      "दैमारी": 3433,
      "खुदिया": 3434,
      "हैनोसै": 3435,
      "बावनांगौ": 3436,
      "गोसोजों": 3437,
      "आंनिनो": 3438,
      "बारखालि": 3439,
      "गेन": 3440,
      "समखौ": 3441,
      "फुन": 3442,
      "नुयै": 3443,
      "दानफायाव": 3444,
      "दावगा": 3445,
      "र्ण": 3446,
      "जानुवारि": 3447,
      "बिसोरनो": 3448,
      "ग्राव": 3449,
      "मुंनि": 3450,
      "मैला": 3451,
      "दिनैसो": 3452,
      "लिरदों": 3453,
      "ओंथिया": 3454,
      "मानिबा": 3455,
      "थैनो": 3456,
      "ब्राय": 3457,
      "फरायग्लांनाय": 3458,
      "आफाखौ": 3459,
      "किल": 3460,
      "फिसाखौ": 3461,
      "जाब्ला": 3462,
      "हादत": 3463,
      "लोंबाय": 3464,
      "बादाय": 3465,
      "फोरखौबो": 3466,
      "मायो": 3467,
      "दायो": 3468,
      "सासेया": 3469,
      "सान्दोंमोन": 3470,
      "गायै": 3471,
      "ाबादि": 3472,
      "रंगा": 3473,
      "ओंखारलां": 3474,
      "गारिया": 3475,
      "महरा": 3476,
      "माबाफोर": 3477,
      "सिमांनि": 3478,
      "खोनानो": 3479,
      "समाजारि": 3480,
      "थानायाव": 3481,
      "ष्टार": 3482,
      "दारनि": 3483,
      "नोंसोरखौ": 3484,
      "राइजोनि": 3485,
      "एप्लाई": 3486,
      "गोहोखौ": 3487,
      "गुवाहाटि": 3488,
      "गामियाव": 3489,
      "जुलिनि": 3490,
      "बिलाइआव": 3491,
      "दाइनि": 3492,
      "बेंगिरि": 3493,
      "इन्दु": 3494,
      "मन्दि": 3495,
      "इंराज": 3496,
      "सुंद": 3497,
      "अब्लासो": 3498,
      "बिब्दिब्ला": 3499,
      "रंजालि": 3500,
      "लांगोना": 3501,
      "ड़ि": 3502,
      "ब्रें": 3503,
      "सुजुगिरि": 3504,
      "गोरोबथा": 3505,
      "त्रिक": 3506,
      "शासन": 3507,
      "बिबारिनि": 3508,
      "गोमोथाव": 3509,
      "सोलेरनि": 3510,
      "बदनाम": 3511,
      "गाखोलांनांगौ": 3512,
      "लाउथि": 3513,
      "एखनबा": 3514,
      "बिमायनि": 3515,
      "हान्थिनाय": 3516,
      "फाराग": 3517,
      "देरहानायनि": 3518,
      "अफगानिस्तान": 3519,
      "नेरसोन": 3520,
      "जाइलि": 3521,
      "साबायखर": 3522,
      "राष्ट्री": 3523,
      "बिबुंथि": 3524,
      "हज्रिखाव": 3525,
      "गाखोनो": 3526,
      "आगोलनि": 3527,
      "पाब्लिक": 3528,
      "स्टार्ट": 3529,
      "मबाइल": 3530,
      "आइएनडि": 3531,
      "थामहिनबा": 3532,
      "![": 3533,
      ",\"": 3534,
      "-\"": 3535,
      ".(": 3536,
      "ain": 3537,
      "il": 3538,
      "अनो": 3539,
      "अके": 3540,
      "आमि": 3541,
      "आगु": 3542,
      "आमाइ": 3543,
      "आन्दा": 3544,
      "इनाय": 3545,
      "इसोर": 3546,
      "उरां": 3547,
      "उखुन्": 3548,
      "ओरै": 3549,
      "करो": 3550,
      "खना": 3551,
      "खथां": 3552,
      "घिक": 3553,
      "ङारि": 3554,
      "चान": 3555,
      "जथाय": 3556,
      "टनि": 3557,
      "टर्": 3558,
      "डेन": 3559,
      "थ्": 3560,
      "नहा": 3561,
      "नया": 3562,
      "नवा": 3563,
      "नारी": 3564,
      "पजʼ": 3565,
      "फन": 3566,
      "फाबाय": 3567,
      "फटʼ": 3568,
      "बक": 3569,
      "बनि": 3570,
      "बाबो": 3571,
      "बहु": 3572,
      "बंग": 3573,
      "भब": 3574,
      "भाया": 3575,
      "मय": 3576,
      "मस्": 3577,
      "रह": 3578,
      "लगा": 3579,
      "लता": 3580,
      "वनि": 3581,
      "वाइ": 3582,
      "हारा": 3583,
      "ेस": 3584,
      "ेमबर": 3585,
      "।(": 3586,
      "निख्रुइ": 3587,
      "निबंध": 3588,
      "बिजाथि": 3589,
      "बिजनि": 3590,
      "नोमा": 3591,
      "लाग्रा": 3592,
      "खौऔ": 3593,
      "खौलाय": 3594,
      "सिङा": 3595,
      "सिलाराम": 3596,
      "नायदो": 3597,
      "नायहरबाय": 3598,
      "बोबाय": 3599,
      "बोलि": 3600,
      "बेन": 3601,
      "बेफोरनि": 3602,
      "सेम्": 3603,
      "सेयार": 3604,
      "हाँ": 3605,
      "हाउ": 3606,
      "हाथाय": 3607,
      "हाथों": 3608,
      "मोनलाय": 3609,
      "जालाङो": 3610,
      "आंथʼ": 3611,
      "बासि": 3612,
      "साफा": 3613,
      "थिं": 3614,
      "...?": 3615,
      "जोंसार": 3616,
      "जिनै": 3617,
      "बुल": 3618,
      "बुब्": 3619,
      "थासे": 3620,
      "दाद्रि": 3621,
      "फोरानो": 3622,
      "रामा": 3623,
      "राजाया": 3624,
      "रोमै": 3625,
      "रोजाब": 3626,
      "गिबाय": 3627,
      "गिदों": 3628,
      "रिका": 3629,
      "गुजु": 3630,
      "जेनʼ": 3631,
      "जेनिबो": 3632,
      "जोश": 3633,
      "मुङाव": 3634,
      "मोखथां": 3635,
      "सुन": 3636,
      "सुफुं": 3637,
      "फाग्लि": 3638,
      "थांफिन": 3639,
      "ब्ले": 3640,
      "म्प": 3641,
      "फैमाल": 3642,
      "सानाय": 3643,
      "सानफ्रामबो": 3644,
      "दुइ": 3645,
      "दुलि": 3646,
      "मेव": 3647,
      "मेडा": 3648,
      "मेहन": 3649,
      "गावसोर": 3650,
      "गावसोरनि": 3651,
      "देनां": 3652,
      "देते": 3653,
      "दंफायो": 3654,
      "रावनोबो": 3655,
      "बुंदोंमोन": 3656,
      "खुद्रि": 3657,
      "लांफा": 3658,
      "हैदिनि": 3659,
      "वाला": 3660,
      "रायथाइ": 3661,
      "थारै": 3662,
      "हरै": 3663,
      "हरगोन": 3664,
      "हरबिला": 3665,
      "लामनि": 3666,
      "स्वा": 3667,
      "हायना": 3668,
      "हाबहैबाय": 3669,
      "होनै": 3670,
      "गोसोया": 3671,
      "गोसोयाव": 3672,
      "आंनिया": 3673,
      "आंनिसो": 3674,
      "खालामना": 3675,
      "खालामनांगौ": 3676,
      "नङासै": 3677,
      "नेगासिनो": 3678,
      "नेक्स": 3679,
      "बारगʼ": 3680,
      "हेले": 3681,
      "काट": 3682,
      "खांदोंमोन": 3683,
      "फुदुं": 3684,
      "नुदों": 3685,
      "नुगोन": 3686,
      "गाबनानै": 3687,
      "सारी": 3688,
      "र्ष": 3689,
      "बांला": 3690,
      "बांग्ला": 3691,
      "बांगाल": 3692,
      "ग्राम": 3693,
      "जौसिन": 3694,
      "ग्री": 3695,
      "हुरा": 3696,
      "मुंख्लं": 3697,
      "मैनो": 3698,
      "कक्राझाराव": 3699,
      "हमथानो": 3700,
      "गारो": 3701,
      "थैबाय": 3702,
      "टिक": 3703,
      "लोगोआव": 3704,
      "अनी": 3705,
      "अनारि": 3706,
      "अननायनि": 3707,
      "कित": 3708,
      "किन": 3709,
      "दांनाय": 3710,
      "बेसेना": 3711,
      "जानायाव": 3712,
      "थावरि": 3713,
      "तिया": 3714,
      "सेप्टेमबर": 3715,
      "सनानि": 3716,
      "सनदेह": 3717,
      "खोमायाव": 3718,
      "हागौमानि": 3719,
      "सालिस": 3720,
      "सालिसखौ": 3721,
      "मोन्थाय": 3722,
      "मोन्नै": 3723,
      "गाननाय": 3724,
      "गानहो": 3725,
      "करने": 3726,
      "ख्राव": 3727,
      "बानजाय": 3728,
      "सौफैबाय": 3729,
      "बयखौबो": 3730,
      "रामसि": 3731,
      "थाबैनो": 3732,
      "बेखौथʼ": 3733,
      "माइगाब": 3734,
      "जैमती": 3735,
      "टेल": 3736,
      "खनथाम": 3737,
      "समायस्रीया": 3738,
      "दरलाया": 3739,
      "मोखांजों": 3740,
      "खोनानानै": 3741,
      "गरी": 3742,
      "जेननायनि": 3743,
      "..............": 3744,
      "साबगौ": 3745,
      "सलʼमानि": 3746,
      "फ्लियाव": 3747,
      "बाजिनानै": 3748,
      "दाबाव": 3749,
      "इउनि": 3750,
      "बिसिना": 3751,
      "ब्राम": 3752,
      "खाफाला": 3753,
      "खाफालानो": 3754,
      "खाफालखौ": 3755,
      "अखाफोरा": 3756,
      "सिख्लानि": 3757,
      "दाउबʼ": 3758,
      "गामिया": 3759,
      "जिरायबाय": 3760,
      "सोदोबा": 3761,
      "मोदोमा": 3762,
      "तुलारामा": 3763,
      "नवावनो": 3764,
      "बेंक": 3765,
      "बेंपार्ति": 3766,
      "मनजुलाया": 3767,
      "मन्त्रि": 3768,
      "इंराजि": 3769,
      "भिद": 3770,
      "मिहिरनि": 3771,
      "क्षा": 3772,
      "खिन्थाया": 3773,
      "हौवासा": 3774,
      "बाहायनाय": 3775,
      "हावरिया": 3776,
      "डेल": 3777,
      "ब्रेक": 3778,
      "दावबायनो": 3779,
      "दावबायनायनि": 3780,
      "गाबोननो": 3781,
      "थिनहर": 3782,
      "अरुन": 3783,
      "हान्जाया": 3784,
      "गियाननि": 3785,
      "पुलिसआ": 3786,
      "ओनसोलनि": 3787,
      "बिबारिमोननि": 3788,
      "जाहोनाव": 3789,
      "गुन्दाखौ": 3790,
      "आन्दाय": 3791,
      "फागुना": 3792,
      "गेटनि": 3793,
      "अंक": 3794,
      "बेखेवदों": 3795,
      "आदब": 3796,
      "बेवहायनो": 3797,
      "जौगाखां": 3798,
      "जेकेटखौ": 3799,
      "मिनिटसो": 3800,
      "सरकारि": 3801,
      "जोंथिहा": 3802,
      "2025": 3803,
      "सेन्दे": 3804,
      "फोलेरनि": 3805,
      "खालारः": 3806,
      "जाब्रबथायाव": 3807,
      "सोमावसार": 3808,
      "नालिस": 3809,
      "मोन्दांथि": 3810,
      "सिलागां": 3811,
      "दैदेनगिरि": 3812,
      "इन्टार": 3813,
      "मोनामनाय": 3814,
      "तेजपुर": 3815,
      "उल्था": 3816,
      "राज्य": 3817,
      "जम्मु": 3818,
      "बहुत": 3819,
      "मेहनत": 3820,
      "बांग्लादे": 3821,
      "',": 3822,
      "/-": 3823,
      "24": 3824,
      "Ha": 3825,
      "II": 3826,
      "No": 3827,
      "es": 3828,
      "ht": 3829,
      "ig": 3830,
      "ou": 3831,
      "अस": 3832,
      "अनि": 3833,
      "अखानि": 3834,
      "अदेब": 3835,
      "आसो": 3836,
      "आसान": 3837,
      "आगर": 3838,
      "आबुङै": 3839,
      "उइ": 3840,
      "उप": 3841,
      "कता": 3842,
      "कमन": 3843,
      "कदम": 3844,
      "कमिसन": 3845,
      "खथा": 3846,
      "गस": 3847,
      "गसाय": 3848,
      "चार्": 3849,
      "छु": 3850,
      "जन्": 3851,
      "जखम": 3852,
      "झु": 3853,
      "तम": 3854,
      "तों": 3855,
      "थान्": 3856,
      "दखौ": 3857,
      "दार्": 3858,
      "धी": 3859,
      "ध्": 3860,
      "धनु": 3861,
      "नए": 3862,
      "नारा": 3863,
      "नर्": 3864,
      "नङै": 3865,
      "फरे": 3866,
      "फजʼ": 3867,
      "बबा": 3868,
      "बाबाय": 3869,
      "भाव": 3870,
      "मना": 3871,
      "मारा": 3872,
      "मस्ट": 3873,
      "रग": 3874,
      "लड़": 3875,
      "लाबा": 3876,
      "वह": 3877,
      "सते": 3878,
      "हट": 3879,
      "हमो": 3880,
      "ुशी": 3881,
      "ेसे": 3882,
      "’-": 3883,
      "बिहो": 3884,
      "बिथोन": 3885,
      "लाथि": 3886,
      "लाङाखै": 3887,
      "सिरा": 3888,
      "सिखाङो": 3889,
      "सियार": 3890,
      "नायगि": 3891,
      "नायनिफ्राय": 3892,
      "नायबिजिर": 3893,
      "मालि": 3894,
      "मागोन": 3895,
      "माहारिनि": 3896,
      "नाल": 3897,
      "बेलʼ": 3898,
      "बेथन": 3899,
      "गोजों": 3900,
      "गोथाव": 3901,
      "ाइम": 3902,
      "हाथारनाय": 3903,
      "याल": 3904,
      "यात्रा": 3905,
      "जाता": 3906,
      "जाउनाव": 3907,
      "जाजोबबाय": 3908,
      "बाजार": 3909,
      "सालाय": 3910,
      "साहि": 3911,
      "बायनाय": 3912,
      "बायदों": 3913,
      "बायजो": 3914,
      "थिनाय": 3915,
      "दिमा": 3916,
      "खालाय": 3917,
      "नोंथा": 3918,
      "थाखौ": 3919,
      "थाग्रा": 3920,
      "न्सार": 3921,
      "दाजा": 3922,
      "दाथां": 3923,
      "बर्ड": 3924,
      "गाग्लोब": 3925,
      "राखाव": 3926,
      "राङानो": 3927,
      "राणी": 3928,
      "मिला": 3929,
      "मिया": 3930,
      "मिले": 3931,
      "मिता": 3932,
      "गिलु": 3933,
      "गुरा": 3934,
      "मुगा": 3935,
      "मोदाय": 3936,
      "सुइ": 3937,
      "लेन्": 3938,
      "लेण्ड": 3939,
      "फाफ्लियाव": 3940,
      "थांलाय": 3941,
      "म्बार": 3942,
      "फैखो": 3943,
      "साननै": 3944,
      "्टा": 3945,
      "दुथां": 3946,
      "मेच": 3947,
      "गावस्र": 3948,
      "खोब": 3949,
      "देरा": 3950,
      "रावसोलाय": 3951,
      "बुंजायो": 3952,
      "दैखाङो": 3953,
      "खुद": 3954,
      "खुवा": 3955,
      "जायखि": 3956,
      "लांदोंमोन": 3957,
      "लांथों": 3958,
      "हैनाय": 3959,
      "हैनांगौ": 3960,
      "रायनो": 3961,
      "थारनांगौ": 3962,
      "थारनांगोन": 3963,
      "हर्": 3964,
      "हरनायनि": 3965,
      "मावफुं": 3966,
      "मावथांखि": 3967,
      "जुग": 3968,
      "बावदों": 3969,
      "बावगार": 3970,
      "माननि": 3971,
      "आंनियाव": 3972,
      "लुनानै": 3973,
      "खालामदो": 3974,
      "रांजों": 3975,
      "बारलांबाय": 3976,
      "बारहुं": 3977,
      "लाइजा": 3978,
      "समानै": 3979,
      "थुंगे": 3980,
      "्लै": 3981,
      "नावबो": 3982,
      "खारनाय": 3983,
      "गाब्बाय": 3984,
      "गाबहरनायनि": 3985,
      "दावहाया": 3986,
      "जानाया": 3987,
      "बांद्राय": 3988,
      "हिं": 3989,
      "जोबनानै": 3990,
      "जोबथे": 3991,
      "थाखायसो": 3992,
      "दिनैनिफ्राय": 3993,
      "दिनैसिमबो": 3994,
      "यैनो": 3995,
      "लिरनो": 3996,
      "लिरनानै": 3997,
      "आइलि": 3998,
      "हमनानै": 3999,
      "थैनायनि": 4000,
      "बोराब": 4001,
      "खेबाव": 4002,
      "खेलायाव": 4003,
      "अनजालि": 4004,
      "आफादा": 4005,
      "बाथौ": 4006,
      "लाबोदों": 4007,
      "हांखुर": 4008,
      "डिया": 4009,
      "जायामोन": 4010,
      "देरनाय": 4011,
      "लानांगौ": 4012,
      "सनवाल": 4013,
      "खोमाबाय": 4014,
      "हामगौ": 4015,
      "हामफे": 4016,
      "हामब्लाय": 4017,
      "करके": 4018,
      "आयु": 4019,
      "गुबुननि": 4020,
      "गंस्रि": 4021,
      "दोनो": 4022,
      "सौग्राव": 4023,
      "सासेनि": 4024,
      "सान्नानै": 4025,
      "सान्ति": 4026,
      "सान्दुं": 4027,
      "गायो": 4028,
      "सोंथि": 4029,
      "थाबनो": 4030,
      "ओंखारो": 4031,
      "माइथायनि": 4032,
      "उनथि": 4033,
      "उन्दुना": 4034,
      "लुबैसुला": 4035,
      "ष्टि": 4036,
      "सायावनो": 4037,
      "स्टि": 4038,
      "आबहाव": 4039,
      "महरखौ": 4040,
      "बारिनि": 4041,
      "मोदैनि": 4042,
      "मोदैजों": 4043,
      "फ्लां": 4044,
      "बाजियाव": 4045,
      "ट्राइ": 4046,
      "बिसिया": 4047,
      "खामानिखौ": 4048,
      "खौरांफोर": 4049,
      "खोमसिया": 4050,
      "जिरायनो": 4051,
      "इसलिए": 4052,
      "मोदोमनि": 4053,
      "नोगोरमानि": 4054,
      "नोगोरमायाव": 4055,
      "दाइन": 4056,
      "फायाबो": 4057,
      "एमफौ": 4058,
      "आथिङा": 4059,
      "बुजिया": 4060,
      "बुजियाखै": 4061,
      "फारसेथि": 4062,
      "देरहासाद": 4063,
      "खोथाखौ": 4064,
      "ग्रेड": 4065,
      "बिथांमोनहा": 4066,
      "खानाया": 4067,
      "बांसिनानो": 4068,
      "जादब": 4069,
      "बुब्लियाव": 4070,
      "गोमादों": 4071,
      "फोसावदों": 4072,
      "माहाजोना": 4073,
      "हान्जानि": 4074,
      "फालिदों": 4075,
      "दिहुन्": 4076,
      "आन्दाया": 4077,
      "फागुन": 4078,
      "होमबा": 4079,
      "सामलाय": 4080,
      "फ्लाङो": 4081,
      "2024": 4082,
      "कौन": 4083,
      "दर्द": 4084,
      "जाब्रबथाय": 4085,
      "फʼन": 4086,
      "मिजराम": 4087,
      "साजायना": 4088,
      "उदखारि": 4089,
      "हयथʼ": 4090,
      "बिबनां": 4091,
      "कहलाती": 4092,
      "धोनि": 4093,
      "सभानि": 4094,
      "हुगारबाय": 4095,
      "कामरुप": 4096,
      "पहचान": 4097,
      "सरासन": 4098,
      "रोंगौथि": 4099,
      "लोगों": 4100,
      "बाइदिसिना": 4101,
      "बच्चे": 4102,
      "सोमोनां": 4103,
      "बाहेराव": 4104,
      "जेसेबां": 4105,
      "आथिखालाव": 4106,
      "आग्जु": 4107,
      "चायत": 4108,
      "रेबतीया": 4109,
      "बिहावखौ": 4110,
      "सिनायाखै": 4111,
      "पाकिस्तान": 4112,
      "सयथिबो": 4113,
      "भारतीय": 4114,
      "इंराजी": 4115,
      "बुब्लिया": 4116,
      "अदेबानि": 4117,
      "साहित्य": 4118,
      "'...": 4119,
      ",'": 4120,
      "ap": 4121,
      "com": 4122,
      "el": 4123,
      "si": 4124,
      "ंखौ": 4125,
      "ंगो": 4126,
      "अउ": 4127,
      "अखाया": 4128,
      "अभि": 4129,
      "अलं": 4130,
      "अगेन": 4131,
      "आराव": 4132,
      "आखै": 4133,
      "आफायाबो": 4134,
      "इसोरनि": 4135,
      "इकिया": 4136,
      "उड़": 4137,
      "उसाव": 4138,
      "उदाय": 4139,
      "एव": 4140,
      "एक्स": 4141,
      "ओजों": 4142,
      "कस": 4143,
      "कहा": 4144,
      "करि": 4145,
      "कमिटि": 4146,
      "गत": 4147,
      "गदै": 4148,
      "गरे": 4149,
      "घु": 4150,
      "घर्ष": 4151,
      "ज़": 4152,
      "जथुम": 4153,
      "जबाब": 4154,
      "टाय": 4155,
      "टान": 4156,
      "डी": 4157,
      "डो": 4158,
      "ताइम": 4159,
      "द्रा": 4160,
      "धोर": 4161,
      "पस्त": 4162,
      "फानाय": 4163,
      "फर्": 4164,
      "फलान": 4165,
      "बस": 4166,
      "बयो": 4167,
      "भर": 4168,
      "म्रि": 4169,
      "मता": 4170,
      "मथे": 4171,
      "याय": 4172,
      "येन": 4173,
      "रजʼ": 4174,
      "लग्": 4175,
      "वारि": 4176,
      "व्य": 4177,
      "वसू": 4178,
      "षण": 4179,
      "षय": 4180,
      "षनि": 4181,
      "सद": 4182,
      "सहर": 4183,
      "समाइ": 4184,
      "सप्": 4185,
      "हक": 4186,
      "हब": 4187,
      "हस्रि": 4188,
      "हब्र": 4189,
      "हमें": 4190,
      "िमपुर": 4191,
      "ेन्ट": 4192,
      "ोब": 4193,
      "ोङै": 4194,
      "निजोरा": 4195,
      "बिथ": 4196,
      "बिजा": 4197,
      "बिफोरखौ": 4198,
      "बिबाजै": 4199,
      "बिदाया": 4200,
      "बिघा": 4201,
      "बिश्व": 4202,
      "बिख्लो": 4203,
      "लाफा": 4204,
      "सिक": 4205,
      "सिगार": 4206,
      "नायसाय": 4207,
      "बोगौ": 4208,
      "नाङैनो": 4209,
      "गोबोर": 4210,
      "गोदोन": 4211,
      "गोबानानै": 4212,
      "हाथि": 4213,
      "हाथर": 4214,
      "मोनथाय": 4215,
      "मोनखो": 4216,
      "मोनलै": 4217,
      "मोननांगौ": 4218,
      "मोनथाम": 4219,
      "मोनखाङो": 4220,
      "यासो": 4221,
      "जात": 4222,
      "जाल": 4223,
      "जाथाइ": 4224,
      "जाखांबाय": 4225,
      "आंना": 4226,
      "आंलं": 4227,
      "बाम": 4228,
      "बादा": 4229,
      "बालाय": 4230,
      "बाजे": 4231,
      "बाथु": 4232,
      "बापा": 4233,
      "बाग्दाव": 4234,
      "सात": 4235,
      "साथा": 4236,
      "साखाथियाव": 4237,
      "सामोल": 4238,
      "थियै": 4239,
      "थिये": 4240,
      "थिलियाव": 4241,
      "दिस्": 4242,
      "दिखार": 4243,
      "लिम": 4244,
      "लिस": 4245,
      "नोंलʼ": 4246,
      "नोंसाला": 4247,
      "जोंथिनि": 4248,
      "जिम": 4249,
      "जिरि": 4250,
      "जिवा": 4251,
      "जिगां": 4252,
      "जिवाव": 4253,
      "बुथुम": 4254,
      "थाहै": 4255,
      "थाथʼ": 4256,
      "थालायाव": 4257,
      "थालाखौ": 4258,
      "थाजिम": 4259,
      "दाथ": 4260,
      "दाफै": 4261,
      "दालां": 4262,
      "दासिम": 4263,
      "दादी": 4264,
      "बरगय": 4265,
      "गाखौ": 4266,
      "गादों": 4267,
      "लायलांबाय": 4268,
      "राङा": 4269,
      "राभा": 4270,
      "ारिफोरनि": 4271,
      "मित": 4272,
      "मिटा": 4273,
      "मिबथि": 4274,
      "सोरखारि": 4275,
      "सोरबाया": 4276,
      "रोङाब्ला": 4277,
      "गिलुं": 4278,
      "रिनि": 4279,
      "रिपर्ट": 4280,
      "रिगदै": 4281,
      "गुरी": 4282,
      "मुगायाव": 4283,
      "मोथो": 4284,
      "मोब्लि": 4285,
      "सुथि": 4286,
      "सुरि": 4287,
      "सुनानै": 4288,
      "सुमै": 4289,
      "सुबुङा": 4290,
      "सैमाया": 4291,
      "होया": 4292,
      "होखार": 4293,
      "लेव": 4294,
      "फाथै": 4295,
      "थांखो": 4296,
      "थांब्ला": 4297,
      "थांगासिनो": 4298,
      "फैनायनि": 4299,
      "फैफिनबाय": 4300,
      "फिनि": 4301,
      "फिया": 4302,
      "फिकेट": 4303,
      "सानाव": 4304,
      "दुयारी": 4305,
      "दोबै": 4306,
      "देख": 4307,
      "देस्क": 4308,
      "देरायाव": 4309,
      "दंजोबो": 4310,
      "रावजों": 4311,
      "बुंदो": 4312,
      "बुंङो": 4313,
      "बुंब्ला": 4314,
      "गैखाया": 4315,
      "दैखौ": 4316,
      "दैआव": 4317,
      "खायै": 4318,
      "जायहा": 4319,
      "जायगानि": 4320,
      "नांबाव": 4321,
      "वासि": 4322,
      "थारमोन": 4323,
      "लोङै": 4324,
      "मावा": 4325,
      "मावै": 4326,
      "मावजि": 4327,
      "मावनांगोन": 4328,
      "जुला": 4329,
      "जुमाइ": 4330,
      "स्की": 4331,
      "हायाबो": 4332,
      "हाबाव": 4333,
      "खैरो": 4334,
      "गोरों": 4335,
      "बावयो": 4336,
      "बावहाय": 4337,
      "बावदिया": 4338,
      "बैयाव": 4339,
      "केरे": 4340,
      "केसन": 4341,
      "नेस": 4342,
      "गेदाइ": 4343,
      "्लाब": 4344,
      "गैयालै": 4345,
      "कास": 4346,
      "काश्": 4347,
      "खांनो": 4348,
      "खांनांगौ": 4349,
      "नुगा": 4350,
      "नुगानै": 4351,
      "गाबबाय": 4352,
      "गाबजों": 4353,
      "गाबनाया": 4354,
      "सार्": 4355,
      "सार्टि": 4356,
      "जाबायमोन": 4357,
      "दावसि": 4358,
      "जांख्रि": 4359,
      "बांग्रि": 4360,
      "थोजासे": 4361,
      "हिमा": 4362,
      "ग्राथा": 4363,
      "थाइनै": 4364,
      "थाइयाव": 4365,
      "लैंड": 4366,
      "क्टार": 4367,
      "जौसे": 4368,
      "फोथायो": 4369,
      "हुँ": 4370,
      "मिथियो": 4371,
      "मिथिनानै": 4372,
      "मिथिसʼ": 4373,
      "मिथिंगा": 4374,
      "जोबथार": 4375,
      "थेनो": 4376,
      "थेसन": 4377,
      "मैयानि": 4378,
      "कक्राझारआव": 4379,
      "मानिया": 4380,
      "मानिनां": 4381,
      "गाराइ": 4382,
      "पिआइ": 4383,
      "पियन": 4384,
      "फेग्रा": 4385,
      "फेजेनो": 4386,
      "साइके": 4387,
      "फरायसुलि": 4388,
      "संघर्ष": 4389,
      "खेमा": 4390,
      "क्ति": 4391,
      "अननाया": 4392,
      "अनसुला": 4393,
      "अनजिमा": 4394,
      "फिनदों": 4395,
      "किट": 4396,
      "जाबा": 4397,
      "सावस्रि": 4398,
      "जागोनबो": 4399,
      "मिनिनो": 4400,
      "हांख्र": 4401,
      "गांसो": 4402,
      "मानसिखौ": 4403,
      "थावा": 4404,
      "डिस": 4405,
      "डिमा": 4406,
      "तिन": 4407,
      "देरबाय": 4408,
      "लानांगोन": 4409,
      "जावलि": 4410,
      "खोमदोना": 4411,
      "सालिसा": 4412,
      "सालिसनि": 4413,
      "मोन्नो": 4414,
      "मोन्नानै": 4415,
      "प्रभा": 4416,
      "प्रमद": 4417,
      "प्रसाद": 4418,
      "सुबुंथि": 4419,
      "सुबुंफोरनि": 4420,
      "स्रोद": 4421,
      "मायथायाव": 4422,
      "गुबुनसो": 4423,
      "गुबुनजों": 4424,
      "लामाखौ": 4425,
      "नायावनो": 4426,
      "बेनिनो": 4427,
      "सान्दो": 4428,
      "मारजित": 4429,
      "सोंखारि": 4430,
      "थाबनाय": 4431,
      "बिदिसो": 4432,
      "दुखुथिया": 4433,
      "ओंखारलांबाय": 4434,
      "खाथिजों": 4435,
      "हादोराव": 4436,
      "माइरं": 4437,
      "महननि": 4438,
      "महत्व": 4439,
      "तें": 4440,
      "सिमांफोरा": 4441,
      "उन्दुलांनो": 4442,
      "नʼआव": 4443,
      "नाङाखिसै": 4444,
      "फावखुंगुर": 4445,
      "ंगानि": 4446,
      "बुङोदि": 4447,
      "ग्लाबो": 4448,
      "बोसोरि": 4449,
      "बोसोरबा": 4450,
      "आखाइखौ": 4451,
      "जेनबाय": 4452,
      "अपारे": 4453,
      "नोंसोरो": 4454,
      "बाराद्राय": 4455,
      "...........": 4456,
      "............": 4457,
      "राइजोफोरा": 4458,
      "राइजोफ्रा": 4459,
      "बायदिनो": 4460,
      "बायदिसिना": 4461,
      "गोहोनि": 4462,
      "मीर": 4463,
      "मीना": 4464,
      "बाजिनिफ्राय": 4465,
      "हौवाया": 4466,
      "बिफान्": 4467,
      "बिफाना": 4468,
      "बिसिनि": 4469,
      "बिसिनायाव": 4470,
      "खामानिया": 4471,
      "खुंथाया": 4472,
      "जुनार": 4473,
      "अखाफोर": 4474,
      "त्रां": 4475,
      "खौरांलाइ": 4476,
      "थानाया": 4477,
      "लाजिनो": 4478,
      "लाजियो": 4479,
      "विषय": 4480,
      "तुम": 4481,
      "गुवाहाटीनि": 4482,
      "नागिरना": 4483,
      "गेलेग्रा": 4484,
      "मनजुलानि": 4485,
      "मनजुआबो": 4486,
      "आगस्त": 4487,
      "मार्स": 4488,
      "ख्लाय": 4489,
      "लंथं": 4490,
      "बान्दि": 4491,
      "बान्दो": 4492,
      "बान्दी": 4493,
      "गुरजे": 4494,
      "आथिङाव": 4495,
      "एनआर": 4496,
      "दमननि": 4497,
      "गेजेरावनो": 4498,
      "पुलिसा": 4499,
      "नोंहालाय": 4500,
      "जेंनाया": 4501,
      "बिफाखौ": 4502,
      "क्षे": 4503,
      "रजिजों": 4504,
      "खिन्थायो": 4505,
      "गोर्बोआ": 4506,
      "गोमाबाय": 4507,
      "नोजोरा": 4508,
      "मुलुगखौ": 4509,
      "बिसायखथिनि": 4510,
      "लांगोनायाव": 4511,
      "बंद": 4512,
      "थुनलाइनि": 4513,
      "बिथांखौ": 4514,
      "बैसोसिम": 4515,
      "ग्रोदों": 4516,
      "बिलिफाङाबो": 4517,
      "दʼयो": 4518,
      "बुरखाय": 4519,
      "बुरलुं": 4520,
      "बुङाखै": 4521,
      "फिसाजोनि": 4522,
      "फिसाजोखौ": 4523,
      "गोजांदों": 4524,
      "खरʼखौ": 4525,
      "ड़ी": 4526,
      "ज्योति": 4527,
      "सुजुनाय": 4528,
      "जाथारा": 4529,
      "स्रांनो": 4530,
      "दोर्": 4531,
      "माहाजोननि": 4532,
      "हाग्रामायाव": 4533,
      "थाराखै": 4534,
      "आन्दायाबो": 4535,
      "चेहरे": 4536,
      "उदालगुरिआव": 4537,
      "गोदोनि": 4538,
      "बाबेन": 4539,
      "थगायनो": 4540,
      "दूर": 4541,
      "ष्थेसन": 4542,
      "हाबायाव": 4543,
      "प्रेस": 4544,
      "फिन्दों": 4545,
      "जेन्नाय": 4546,
      "खोनासंनो": 4547,
      "रमाकान्त": 4548,
      "बिसम्बि": 4549,
      "कलिता": 4550,
      "रौंगो": 4551,
      "गुदियाव": 4552,
      "गेवलां": 4553,
      "जानांबाय": 4554,
      "सान्थ्रिफोर": 4555,
      "दर्बासिया": 4556,
      "अफिसनि": 4557,
      "एबसुनि": 4558,
      "फिनाखै": 4559,
      "गाबज्रियो": 4560,
      "लक्ष्": 4561,
      "लक्षिमपुर": 4562,
      "समिलाया": 4563,
      "____": 4564,
      "सभायाव": 4565,
      "हाजरिका": 4566,
      "आनारामनि": 4567,
      "रूप": 4568,
      "नुवाखै": 4569,
      "सांग्राङा": 4570,
      "अबंलाउ": 4571,
      "छोटी": 4572,
      "फाहामथाय": 4573,
      "मेडिकेल": 4574,
      "लाबोनाय": 4575,
      "tion": 4576,
      "फोथाराव": 4577,
      "बेन्दों": 4578,
      "बैथाली": 4579,
      "मुसुखा": 4580,
      "आवाज": 4581,
      "मेनाजार": 4582,
      "टेबिलाव": 4583,
      "इन्डियान": 4584,
      "इमफ": 4585,
      "बन्ध": 4586,
      "पजिटिभ": 4587,
      "लख्राया": 4588,
      "ग्रोनांगौ": 4589,
      "ज्लिउ": 4590,
      "गोजांस्रिव": 4591,
      "हिनजावसा": 4592,
      "एकाउन्": 4593,
      "पन्चायत": 4594,
      "टर्स": 4595,
      "बांलादेश": 4596,
      "गरीब": 4597,
      "ight": 4598,
      "थान्दै": 4599,
      "सुइसाइ": 4600,
      "वसूली": 4601,
      "सिगारे": 4602,
      "हाथियार": 4603,
      "बरगयारी": 4604,
      "नांबावगौ": 4605,
      "सार्टिफिकेट": 4606,
      ".\"": 4607,
      "25": 4608,
      "SI": 4609,
      "al": 4610,
      "an": 4611,
      "अज": 4612,
      "अरा": 4613,
      "अंग": 4614,
      "अरनि": 4615,
      "अखोर": 4616,
      "असमि": 4617,
      "आजाव": 4618,
      "आथोन": 4619,
      "आबिर": 4620,
      "उत्": 4621,
      "एरा": 4622,
      "एखे": 4623,
      "एटा": 4624,
      "एजेन्": 4625,
      "ओन्": 4626,
      "ओलै": 4627,
      "कच": 4628,
      "कछ": 4629,
      "कमा": 4630,
      "कथा": 4631,
      "ख़": 4632,
      "गह": 4633,
      "गब्": 4634,
      "गलाम": 4635,
      "चन्द्र": 4636,
      "जनो": 4637,
      "जथाइ": 4638,
      "टू": 4639,
      "टो": 4640,
      "ठी": 4641,
      "डै": 4642,
      "डार": 4643,
      "णा": 4644,
      "तन्": 4645,
      "दमा": 4646,
      "दाबा": 4647,
      "धेकियाजुलि": 4648,
      "नई": 4649,
      "नर": 4650,
      "नल": 4651,
      "नव": 4652,
      "नान": 4653,
      "नोर": 4654,
      "नगांव": 4655,
      "पट": 4656,
      "पै": 4657,
      "बथल": 4658,
      "मू": 4659,
      "याब्ला": 4660,
      "रर": 4661,
      "रहे": 4662,
      "लद": 4663,
      "श्रि": 4664,
      "शर्मा": 4665,
      "सफ": 4666,
      "सलि": 4667,
      "सनाव": 4668,
      "सफैबाय": 4669,
      "हों": 4670,
      "हरि": 4671,
      "हमै": 4672,
      "िया": 4673,
      "ूरी": 4674,
      "्नाय": 4675,
      "निम": 4676,
      "निर्मा": 4677,
      "ावार": 4678,
      "बिसो": 4679,
      "बिफोर": 4680,
      "बिलो": 4681,
      "बिबां": 4682,
      "बिलोगो": 4683,
      "बिहार": 4684,
      "लाता": 4685,
      "लागाय": 4686,
      "सिखो": 4687,
      "सिखि": 4688,
      "सिडेन": 4689,
      "नायब्ला": 4690,
      "मात": 4691,
      "माम": 4692,
      "माबि": 4693,
      "मासे": 4694,
      "मास्क": 4695,
      "बोखार": 4696,
      "बोखांदों": 4697,
      "नात": 4698,
      "नाजादों": 4699,
      "सेरनि": 4700,
      "गोग्": 4701,
      "गोमायो": 4702,
      "मोनखौ": 4703,
      "मोनफा": 4704,
      "मोनदोंमोन": 4705,
      "मोनफ्रोमबो": 4706,
      "जादा": 4707,
      "जालु": 4708,
      "जाखर": 4709,
      "जाती": 4710,
      "जाख्रि": 4711,
      "जागासिनो": 4712,
      "जालांनो": 4713,
      "जालांगोन": 4714,
      "जाथोंसै": 4715,
      "जाखानाय": 4716,
      "जालायदों": 4717,
      "जाजोबगोन": 4718,
      "आंसो": 4719,
      "सोच": 4720,
      "सोलखौ": 4721,
      "सोदांनाय": 4722,
      "बागै": 4723,
      "बालु": 4724,
      "बाख्रि": 4725,
      "साखा": 4726,
      "साहाया": 4727,
      "सालाया": 4728,
      "साफ्रोम": 4729,
      "थिरां": 4730,
      "दिला": 4731,
      "खाङाखै": 4732,
      "खाम्फा": 4733,
      "नोंखौनो": 4734,
      "जोंखाङो": 4735,
      "जिब": 4736,
      "बुनो": 4737,
      "बुखार": 4738,
      "न्दे": 4739,
      "दाखा": 4740,
      "दाखार": 4741,
      "बरग": 4742,
      "बरफ": 4743,
      "गामा": 4744,
      "गाहा": 4745,
      "गालि": 4746,
      "गाड़ि": 4747,
      "रास": 4748,
      "राजे": 4749,
      "गिबिनि": 4750,
      "रिक": 4751,
      "रिन": 4752,
      "गुम": 4753,
      "गुब्": 4754,
      "गुदु": 4755,
      "गुथाल": 4756,
      "जोखोम": 4757,
      "जोथोन": 4758,
      "मुख": 4759,
      "मुनि": 4760,
      "मुगैया": 4761,
      "सुनो": 4762,
      "सुगाव": 4763,
      "लेकिन": 4764,
      "फादों": 4765,
      "म्मत": 4766,
      "फैफिनो": 4767,
      "फैखांबाय": 4768,
      "फिथिखा": 4769,
      "सानना": 4770,
      "सानजौ": 4771,
      "साननायनि": 4772,
      "दुप": 4773,
      "दुगा": 4774,
      "दुनिया": 4775,
      "मेथाय": 4776,
      "मेसें": 4777,
      "खोलोब": 4778,
      "देव": 4779,
      "देलाय": 4780,
      "देक्स": 4781,
      "दंब्ला": 4782,
      "दंथारो": 4783,
      "बुंफबनाय": 4784,
      "दैखां": 4785,
      "दैमानि": 4786,
      "दैज्": 4787,
      "दैमाया": 4788,
      "दैथुन": 4789,
      "दैमायाव": 4790,
      "खुदुम": 4791,
      "खायफाया": 4792,
      "जायफोरनि": 4793,
      "लांदो": 4794,
      "नांसिगोन": 4795,
      "रायआ": 4796,
      "रायखौ": 4797,
      "रायदाव": 4798,
      "थारनोसै": 4799,
      "मावगोन": 4800,
      "जुवा": 4801,
      "गोर्लै": 4802,
      "बावा": 4803,
      "बावाखै": 4804,
      "गोसोखां": 4805,
      "गोसोथोनाय": 4806,
      "फ्रे": 4807,
      "फ्रन्ट": 4808,
      "केन्सार": 4809,
      "नेमा": 4810,
      "नेसा": 4811,
      "नेहाद": 4812,
      "नेस्वर": 4813,
      "बारो": 4814,
      "बारनाय": 4815,
      "बाराब्ला": 4816,
      "गेदे": 4817,
      "गेसेर": 4818,
      "गिरिफोरनि": 4819,
      "हेना": 4820,
      "काल": 4821,
      "काता": 4822,
      "नावनो": 4823,
      "फुत": 4824,
      "फुरा": 4825,
      "फुरि": 4826,
      "फुङा": 4827,
      "नुनाय": 4828,
      "नुजाथि": 4829,
      "दानस": 4830,
      "सारफाव": 4831,
      "******": 4832,
      "जानबुं": 4833,
      "हिम्मत": 4834,
      "सिमब्रे": 4835,
      "ग्रह": 4836,
      "फोजा": 4837,
      "फोजाखां": 4838,
      "रेस": 4839,
      "रेखा": 4840,
      "मिथिगोन": 4841,
      "जोबदों": 4842,
      "थेयो": 4843,
      "मुंदां": 4844,
      "दिनैनो": 4845,
      "ओंखा": 4846,
      "ओंखायनो": 4847,
      "पुल": 4848,
      "हमदां": 4849,
      "गारबोनाय": 4850,
      "पिउ": 4851,
      "फेजेन्": 4852,
      "बोरमा": 4853,
      "मोजांनि": 4854,
      "फरायनानै": 4855,
      "अनगा": 4856,
      "बाथरुम": 4857,
      "किम": 4858,
      "फिसाफोर": 4859,
      "जाब्लानो": 4860,
      "सावथु": 4861,
      "आसामआव": 4862,
      "तिय": 4863,
      "मोनसेया": 4864,
      "मोनसेलʼ": 4865,
      "सायो": 4866,
      "जायासै": 4867,
      "ग्लो": 4868,
      "देरदों": 4869,
      "आंखौबो": 4870,
      "खोमायो": 4871,
      "सुबुंफोरखौ": 4872,
      "आयदाया": 4873,
      "दोनदों": 4874,
      "दोनथुम": 4875,
      "सान्दि": 4876,
      "मारदों": 4877,
      "गायारि": 4878,
      "पाप": 4879,
      "गोजोन्नाय": 4880,
      "आनन्द": 4881,
      "हादोरनां": 4882,
      "हाराव": 4883,
      "महान": 4884,
      "उन्दुनाय": 4885,
      "उन्दुयो": 4886,
      "खननै": 4887,
      "खामग्लि": 4888,
      "ंगी": 4889,
      "लायोब्ला": 4890,
      "दरखं": 4891,
      "खोनायो": 4892,
      "ष्टा": 4893,
      "आखाइया": 4894,
      "स्टु": 4895,
      "राजबं": 4896,
      "मोनोमोन": 4897,
      "अरगें": 4898,
      "एप्लि": 4899,
      "बेलखौ": 4900,
      "साबेसे": 4901,
      "सोनाय": 4902,
      "फारां": 4903,
      "जोरदार": 4904,
      "द्राइ": 4905,
      "सीमा": 4906,
      "गाहायनि": 4907,
      "बाजिनि": 4908,
      "बाजिसिम": 4909,
      "दसेनो": 4910,
      "इउक्रे": 4911,
      "हौवानि": 4912,
      "सिनायो": 4913,
      "सिनायनो": 4914,
      "खुंथाय": 4915,
      "सिगांनि": 4916,
      "सिङावनो": 4917,
      "दाउखा": 4918,
      "गामियारि": 4919,
      "तुझे": 4920,
      "नोगोराव": 4921,
      "सायखं": 4922,
      "गुवाहाटीयाव": 4923,
      "गेलेनो": 4924,
      "इन्टि": 4925,
      "सोलोंसालि": 4926,
      "मेगनजों": 4927,
      "आगदा": 4928,
      "भिपिआइ": 4929,
      "जोनोमगिरि": 4930,
      "बिलखौ": 4931,
      "द्ध": 4932,
      "द्लाम": 4933,
      "गोग्लैबाय": 4934,
      "जनी": 4935,
      "गोर्बोआव": 4936,
      "सेंग्राया": 4937,
      "सेरफां": 4938,
      "गोमजोर": 4939,
      "नोजोरजों": 4940,
      "हौवाखौ": 4941,
      "पार्टि": 4942,
      "बाहायग्रा": 4943,
      "सोरखौबा": 4944,
      "लाबानो": 4945,
      "बैसोनि": 4946,
      "ज्लायनो": 4947,
      "खाने": 4948,
      "रानस्राव": 4949,
      "लानायखौ": 4950,
      "नोंबोथʼ": 4951,
      "फोसावबाय": 4952,
      "बेवनो": 4953,
      "जाथारबाय": 4954,
      "हायैनि": 4955,
      "अलक": 4956,
      "अलका": 4957,
      "बुंदोंदि": 4958,
      "थिनदों": 4959,
      "आन्जाद": 4960,
      "गोजाननिफ्राय": 4961,
      "बाथ्रानि": 4962,
      "सानसेयारि": 4963,
      "भटार": 4964,
      "गोमोयो": 4965,
      "गान्जा": 4966,
      "थासारिया": 4967,
      "उजिदों": 4968,
      "कमल": 4969,
      "फैसालियाव": 4970,
      "थेफेनखौ": 4971,
      "सेरावनो": 4972,
      "थगायसुला": 4973,
      "बिथिङाव": 4974,
      "सोलिफु": 4975,
      "सिगाङावनो": 4976,
      "आबैया": 4977,
      "ख्लाब": 4978,
      "पूरा": 4979,
      "पूर्ण": 4980,
      "गोलोमस्राव": 4981,
      "बरायनो": 4982,
      "दुर्जांनि": 4983,
      "लैथोनि": 4984,
      "फान्दाय": 4985,
      "2023": 4986,
      "सकता": 4987,
      "सकते": 4988,
      "चुनाव": 4989,
      "ज्राय": 4990,
      "सरकारनि": 4991,
      "कंग्रेज": 4992,
      "अफिसार": 4993,
      "अनुशासन": 4994,
      "मिलौ": 4995,
      "बनाते": 4996,
      "गुरुदेब": 4997,
      "खानाइनि": 4998,
      "धुबुरि": 4999
    },
    "merges": [
      [
        "ा",
        "य"
      ],
      [
        "ा",
        "न"
      ],
      [
        "न",
        "ि"
      ],
      [
        "ा",
        "व"
      ],
      [
        "ो",
        "ं"
      ],
      [
        "ा",
        "र"
      ],
      [
        "ा",
        "ं"
      ],
      [
        "ो",
        "न"
      ],
      [
        ".",
        "."
      ],
      [
        "ब",
        "ि"
      ],
      [
        "्",
        "र"
      ],
      [
        "ा",
        "ब"
      ],
      [
        "ो",
        "र"
      ],
      [
        "न",
        "ो"
      ],
      [
        "ल",
        "ा"
      ],
      [
        "ख",
        "ौ"
      ],
      [
        "स",
        "ि"
      ],
      [
        "न",
        "ाय"
      ],
      [
        "म",
        "ा"
      ],
      [
        "ब",
        "ो"
      ],
      [
        "न",
        "ा"
      ],
      [
        "ब",
        "े"
      ],
      [
        "स",
        "े"
      ],
      [
        "ग",
        "ो"
      ],
      [
        "ा",
        "इ"
      ],
      [
        "ह",
        "ा"
      ],
      [
        "म",
        "ोन"
      ],
      [
        "य",
        "ा"
      ],
      [
        "ज",
        "ा"
      ],
      [
        "आ",
        "ं"
      ],
      [
        "स",
        "ो"
      ],
      [
        "ब",
        "ा"
      ],
      [
        "स",
        "ा"
      ],
      [
        "ब",
        "ाय"
      ],
      [
        "थ",
        "ि"
      ],
      [
        "द",
        "ों"
      ],
      [
        "द",
        "ि"
      ],
      [
        "ल",
        "ि"
      ],
      [
        "ख",
        "ा"
      ],
      [
        "..",
        "."
      ],
      [
        "न",
        "ों"
      ],
      [
        "ज",
        "ों"
      ],
      [
        "ज",
        "ि"
      ],
      [
        "ब",
        "ु"
      ],
      [
        "थ",
        "ा"
      ],
      [
        "न",
        "्"
      ],
      [
        "य",
        "ो"
      ],
      [
        "द",
        "ा"
      ],
      [
        "ाय",
        "ा"
      ],
      [
        "ब",
        "र"
      ],
      [
        "ान",
        "ै"
      ],
      [
        "ग",
        "ोन"
      ],
      [
        "ान",
        "ो"
      ],
      [
        "ग",
        "ा"
      ],
      [
        "फ",
        "ोर"
      ],
      [
        "ल",
        "ाय"
      ],
      [
        "र",
        "ा"
      ],
      [
        "ार",
        "ि"
      ],
      [
        "्र",
        "ा"
      ],
      [
        "म",
        "ि"
      ],
      [
        "ट",
        "ाइ"
      ],
      [
        "स",
        "ोर"
      ],
      [
        "र",
        "ो"
      ],
      [
        "टाइ",
        "म"
      ],
      [
        "ग",
        "ि"
      ],
      [
        "ान",
        "ि"
      ],
      [
        "र",
        "ि"
      ],
      [
        "ग",
        "ु"
      ],
      [
        "थ",
        "ाय"
      ],
      [
        "ज",
        "े"
      ],
      [
        "ज",
        "ो"
      ],
      [
        "म",
        "ु"
      ],
      [
        "म",
        "ो"
      ],
      [
        "ङ",
        "ा"
      ],
      [
        "स",
        "ु"
      ],
      [
        "ग",
        "ौ"
      ],
      [
        "स",
        "ै"
      ],
      [
        "ह",
        "ो"
      ],
      [
        "ल",
        "े"
      ],
      [
        "फ",
        "ा"
      ],
      [
        "थ",
        "ां"
      ],
      [
        "ब",
        "्"
      ],
      [
        "म",
        "्"
      ],
      [
        "्र",
        "ि"
      ],
      [
        "फ",
        "ै"
      ],
      [
        "ाब",
        "ो"
      ],
      [
        "फ",
        "ि"
      ],
      [
        "न",
        "ानै"
      ],
      [
        "स",
        "ान"
      ],
      [
        "्",
        "ट"
      ],
      [
        "द",
        "ु"
      ],
      [
        "आ",
        "रो"
      ],
      [
        "म",
        "े"
      ],
      [
        "*",
        "*"
      ],
      [
        "ग",
        "ाव"
      ],
      [
        "ख",
        "ो"
      ],
      [
        "द",
        "ो"
      ],
      [
        "द",
        "े"
      ],
      [
        "आ",
        "व"
      ],
      [
        "द",
        "ं"
      ],
      [
        "र",
        "ाव"
      ],
      [
        "बु",
        "ं"
      ],
      [
        "ग",
        "ै"
      ],
      [
        "द",
        "ै"
      ],
      [
        "बि",
        "यो"
      ],
      [
        "ख",
        "ु"
      ],
      [
        "न",
        "ै"
      ],
      [
        "\"",
        "-"
      ],
      [
        "ख",
        "ाय"
      ],
      [
        "ज",
        "ाय"
      ],
      [
        "ल",
        "ां"
      ],
      [
        "ह",
        "ै"
      ],
      [
        "न",
        "ां"
      ],
      [
        "य",
        "ाव"
      ],
      [
        "ख",
        "ि"
      ],
      [
        "म्",
        "बर"
      ],
      [
        "व",
        "ा"
      ],
      [
        "ाब",
        "ाय"
      ],
      [
        "र",
        "ाय"
      ],
      [
        "थ",
        "ार"
      ],
      [
        "ह",
        "र"
      ],
      [
        "ल",
        "ो"
      ],
      [
        "ान",
        "ाय"
      ],
      [
        "म",
        "ाव"
      ],
      [
        "ज",
        "ु"
      ],
      [
        "ला",
        "म"
      ],
      [
        "स",
        "्"
      ],
      [
        "ार",
        "ा"
      ],
      [
        "ह",
        "ाय"
      ],
      [
        "ह",
        "ाब"
      ],
      [
        "ङ",
        "ो"
      ],
      [
        "ह",
        "ोन"
      ],
      [
        "ख",
        "ै"
      ],
      [
        "ग",
        "ोर"
      ],
      [
        "..",
        ".."
      ],
      [
        "ब",
        "ाव"
      ],
      [
        "म",
        "ान"
      ],
      [
        "गो",
        "सो"
      ],
      [
        "फ",
        "्र"
      ],
      [
        "आं",
        "नि"
      ],
      [
        "ब्",
        "ला"
      ],
      [
        "ल",
        "ु"
      ],
      [
        "ब",
        "ै"
      ],
      [
        "खा",
        "लाम"
      ],
      [
        "न",
        "ङा"
      ],
      [
        "र",
        "ां"
      ],
      [
        "क",
        "े"
      ],
      [
        "न",
        "े"
      ],
      [
        "ब",
        "ार"
      ],
      [
        "म",
        "ाब"
      ],
      [
        "ला",
        "इ"
      ],
      [
        "ान",
        "्"
      ],
      [
        "ग",
        "े"
      ],
      [
        "र",
        "ु"
      ],
      [
        "स",
        "म"
      ],
      [
        "थ",
        "ु"
      ],
      [
        "गि",
        "रि"
      ],
      [
        "ह",
        "े"
      ],
      [
        "्",
        "ल"
      ],
      [
        "थ",
        "ʼ"
      ],
      [
        "गै",
        "या"
      ],
      [
        "क",
        "ा"
      ],
      [
        "ख",
        "ां"
      ],
      [
        "ना",
        "थाय"
      ],
      [
        "न",
        "ाव"
      ],
      [
        "फ",
        "ु"
      ],
      [
        "र",
        "ै"
      ],
      [
        "बि",
        "नि"
      ],
      [
        "्",
        "ला"
      ],
      [
        "न",
        "ु"
      ],
      [
        "ख",
        "ार"
      ],
      [
        "ग",
        "ाब"
      ],
      [
        "जाय",
        "ो"
      ],
      [
        "द",
        "ान"
      ],
      [
        "स",
        "ार"
      ],
      [
        "\"",
        "\""
      ],
      [
        "म",
        "ानो"
      ],
      [
        "ज",
        "ाबाय"
      ],
      [
        "झ",
        "ार"
      ],
      [
        "द",
        "ाव"
      ],
      [
        "ज",
        "ां"
      ],
      [
        "**",
        "**"
      ],
      [
        "ल",
        "ʼ"
      ],
      [
        "र",
        "्"
      ],
      [
        "ज",
        "ान"
      ],
      [
        "ब",
        "ां"
      ],
      [
        "थ",
        "ो"
      ],
      [
        "ह",
        "ि"
      ],
      [
        "ग",
        "्रा"
      ],
      [
        "थ",
        "ाइ"
      ],
      [
        "ल",
        "ै"
      ],
      [
        "बि",
        "सोर"
      ],
      [
        "ार",
        "ी"
      ],
      [
        "फ्र",
        "ाय"
      ],
      [
        "क",
        "्ट"
      ],
      [
        "ज",
        "ौ"
      ],
      [
        "सि",
        "म"
      ],
      [
        "त",
        "ा"
      ],
      [
        "नों",
        "नि"
      ],
      [
        "ग",
        "्र"
      ],
      [
        "फ",
        "ो"
      ],
      [
        "ह",
        "ु"
      ],
      [
        "र",
        "े"
      ],
      [
        "मि",
        "थि"
      ],
      [
        "जो",
        "ब"
      ],
      [
        "ाय",
        "ाव"
      ],
      [
        "ह",
        "ाया"
      ],
      [
        "क",
        "्रा"
      ],
      [
        "थ",
        "े"
      ],
      [
        "था",
        "खाय"
      ],
      [
        "मु",
        "ं"
      ],
      [
        "म",
        "ै"
      ],
      [
        "दि",
        "नै"
      ],
      [
        "फोर",
        "ा"
      ],
      [
        "य",
        "ै"
      ],
      [
        "स",
        "्रि"
      ],
      [
        "क्रा",
        "झार"
      ],
      [
        "ार",
        "्"
      ],
      [
        "नां",
        "गौ"
      ],
      [
        "लि",
        "र"
      ],
      [
        "क",
        "क्राझार"
      ],
      [
        "दों",
        "मोन"
      ],
      [
        "ओ",
        "ं"
      ],
      [
        "प",
        "ु"
      ],
      [
        "म",
        "ानि"
      ],
      [
        "अ",
        "क्ट"
      ],
      [
        "आ",
        "इ"
      ],
      [
        "ह",
        "म"
      ],
      [
        "ज",
        "ानो"
      ],
      [
        "ग",
        "ार"
      ],
      [
        "प",
        "ि"
      ],
      [
        "थ",
        "ै"
      ],
      [
        "नि",
        "फ्राय"
      ],
      [
        "जि",
        "उ"
      ],
      [
        "फ",
        "े"
      ],
      [
        "स",
        "ाइ"
      ],
      [
        "बा",
        "दि"
      ],
      [
        "ट",
        "ि"
      ],
      [
        "ब",
        "्र"
      ],
      [
        "ब",
        "ोर"
      ],
      [
        "ज",
        "ोन"
      ],
      [
        "नाय",
        "नि"
      ],
      [
        "आ",
        "सा"
      ],
      [
        "मो",
        "जां"
      ],
      [
        "फ",
        "राय"
      ],
      [
        "स",
        "ं"
      ],
      [
        "लो",
        "गो"
      ],
      [
        "ख",
        "े"
      ],
      [
        "क",
        "्"
      ],
      [
        "न",
        "ं"
      ],
      [
        "े",
        "म्बर"
      ],
      [
        "नाय",
        "ा"
      ],
      [
        "जा",
        "दों"
      ],
      [
        "से",
        "प"
      ],
      [
        "अ",
        "न"
      ],
      [
        "फि",
        "न"
      ],
      [
        "न्",
        "द"
      ],
      [
        "आ",
        "फा"
      ],
      [
        "बा",
        "थ"
      ],
      [
        "क",
        "ि"
      ],
      [
        "फि",
        "सा"
      ],
      [
        "ङ",
        "ै"
      ],
      [
        "ज",
        "ाब"
      ],
      [
        "ल",
        "ाबो"
      ],
      [
        "स",
        "ाव"
      ],
      [
        "द",
        "ां"
      ],
      [
        "ङ",
        "ाव"
      ],
      [
        "ल",
        "ाव"
      ],
      [
        "जा",
        "गोन"
      ],
      [
        "मि",
        "नि"
      ],
      [
        "ख",
        "र"
      ],
      [
        "ह",
        "ां"
      ],
      [
        "बे",
        "से"
      ],
      [
        "आसा",
        "म"
      ],
      [
        "ज",
        "ानाय"
      ],
      [
        "लि",
        "या"
      ],
      [
        "ह",
        "ारि"
      ],
      [
        "हा",
        "द"
      ],
      [
        "ग",
        "ां"
      ],
      [
        "मान",
        "सि"
      ],
      [
        "थ",
        "ाव"
      ],
      [
        "गोन",
        "ां"
      ],
      [
        "ड",
        "ि"
      ],
      [
        "म",
        "न"
      ],
      [
        "त",
        "ि"
      ],
      [
        "न",
        "बे"
      ],
      [
        "मोन",
        "से"
      ],
      [
        "ए",
        "से"
      ],
      [
        "हाब",
        "ा"
      ],
      [
        "सेप",
        "्ट"
      ],
      [
        "खौ",
        "नो"
      ],
      [
        "नबे",
        "म्बर"
      ],
      [
        "उ",
        "नाव"
      ],
      [
        "स",
        "ाय"
      ],
      [
        "ोन",
        "ा"
      ],
      [
        "ज",
        "ाया"
      ],
      [
        "ग",
        "्"
      ],
      [
        "दे",
        "र"
      ],
      [
        "ल",
        "ों"
      ],
      [
        "सेप्ट",
        "ेम्बर"
      ],
      [
        "ल",
        "ान"
      ],
      [
        "बा",
        "द"
      ],
      [
        "सि",
        "न"
      ],
      [
        "अक्ट",
        "बर"
      ],
      [
        "ो",
        "म"
      ],
      [
        "ज",
        "ाव"
      ],
      [
        "स",
        "न"
      ],
      [
        "थाय",
        "ो"
      ],
      [
        "आं",
        "खौ"
      ],
      [
        "खो",
        "म"
      ],
      [
        "फोर",
        "नि"
      ],
      [
        "हा",
        "गौ"
      ],
      [
        "सा",
        "लि"
      ],
      [
        "लिर",
        "गिरि"
      ],
      [
        "क",
        "ो"
      ],
      [
        "मोन",
        "्"
      ],
      [
        "फोर",
        "खौ"
      ],
      [
        "प",
        "्र"
      ],
      [
        "सु",
        "बुं"
      ],
      [
        "जे",
        "बो"
      ],
      [
        "उ",
        "न्"
      ],
      [
        "गो",
        "दान"
      ],
      [
        "सो",
        "म"
      ],
      [
        "ग",
        "ान"
      ],
      [
        "हा",
        "म"
      ],
      [
        "गु",
        "बु"
      ],
      [
        "क",
        "र"
      ],
      [
        "/",
        "/"
      ],
      [
        "स",
        "्र"
      ],
      [
        "आ",
        "य"
      ],
      [
        "आ",
        "र"
      ],
      [
        "म",
        "ाय"
      ],
      [
        "गुबु",
        "न"
      ],
      [
        "ग",
        "ं"
      ],
      [
        "स",
        "ानै"
      ],
      [
        "ख",
        "्र"
      ],
      [
        "ब",
        "ान"
      ],
      [
        "म",
        "ले"
      ],
      [
        "क",
        "ु"
      ],
      [
        "से",
        "म्बर"
      ],
      [
        "द",
        "ाय"
      ],
      [
        "खि",
        "सै"
      ],
      [
        "बाथ",
        "्रा"
      ],
      [
        "ला",
        "मा"
      ],
      [
        "गाव",
        "नि"
      ],
      [
        "मे",
        "ं"
      ],
      [
        "जे",
        "रै"
      ],
      [
        "द",
        "ोन"
      ],
      [
        "मोन",
        "ा"
      ],
      [
        "स",
        "ौ"
      ],
      [
        "नाय",
        "ाव"
      ],
      [
        "र",
        "ाइ"
      ],
      [
        "बे",
        "नि"
      ],
      [
        "सा",
        "से"
      ],
      [
        "जों",
        "नि"
      ],
      [
        "सान",
        "्"
      ],
      [
        "आ",
        "ले"
      ],
      [
        "थ",
        "ों"
      ],
      [
        "म",
        "ार"
      ],
      [
        "बि",
        "खौ"
      ],
      [
        "आ",
        "दा"
      ],
      [
        "क",
        "ी"
      ],
      [
        "ग",
        "ाय"
      ],
      [
        "न",
        "नि"
      ],
      [
        "ग",
        "साइ"
      ],
      [
        "ज",
        "्"
      ],
      [
        "ब",
        "य"
      ],
      [
        "ना",
        "मा"
      ],
      [
        "त",
        "ी"
      ],
      [
        "प",
        "ा"
      ],
      [
        "सि",
        "रि"
      ],
      [
        "गा",
        "सि"
      ],
      [
        "आ",
        "ख"
      ],
      [
        "ट",
        "ी"
      ],
      [
        "स",
        "ों"
      ],
      [
        "रा",
        "म"
      ],
      [
        "ब्",
        "लाबो"
      ],
      [
        "****",
        "****"
      ],
      [
        "ाब",
        "ा"
      ],
      [
        "र",
        "ं"
      ],
      [
        "सोर",
        "नि"
      ],
      [
        "थ",
        "ाब"
      ],
      [
        "पु",
        "र"
      ],
      [
        "ल",
        "ाया"
      ],
      [
        "व",
        "ाव"
      ],
      [
        "बि",
        "दि"
      ],
      [
        "दु",
        "खु"
      ],
      [
        "ओं",
        "खार"
      ],
      [
        "च",
        "ि"
      ],
      [
        "भ",
        "े"
      ],
      [
        "बि",
        "मा"
      ],
      [
        "नो",
        "सै"
      ],
      [
        "गो",
        "जोन"
      ],
      [
        "थि",
        "या"
      ],
      [
        "खा",
        "थि"
      ],
      [
        "आ",
        "न"
      ],
      [
        "जे",
        "राव"
      ],
      [
        "हाद",
        "ोर"
      ],
      [
        "स",
        "माव"
      ],
      [
        "ग",
        "ारि"
      ],
      [
        "स",
        "र"
      ],
      [
        "ह",
        "ार"
      ],
      [
        "बे",
        "खौ"
      ],
      [
        "फ",
        "्रा"
      ],
      [
        "मा",
        "इ"
      ],
      [
        "म",
        "ह"
      ],
      [
        "उ",
        "न"
      ],
      [
        "ज",
        "ै"
      ],
      [
        "त",
        "े"
      ],
      [
        "मे",
        "ग"
      ],
      [
        "माब",
        "ा"
      ],
      [
        "सिम",
        "ां"
      ],
      [
        "लान",
        "ानै"
      ],
      [
        "फ",
        "ां"
      ],
      [
        "खालाम",
        "नो"
      ],
      [
        "फु",
        "ं"
      ],
      [
        "ज",
        "्रि"
      ],
      [
        "बे",
        "नो"
      ],
      [
        "ट",
        "े"
      ],
      [
        "उन्",
        "दु"
      ],
      [
        "ख",
        "ाव"
      ],
      [
        "ख",
        "न"
      ],
      [
        "ारा",
        "म"
      ],
      [
        "ान्",
        "थि"
      ],
      [
        "भ",
        "ार"
      ],
      [
        "ल",
        "्"
      ],
      [
        "नों",
        "खौ"
      ],
      [
        "गोर",
        "बो"
      ],
      [
        "खा",
        "म"
      ],
      [
        "होन",
        "ो"
      ],
      [
        "ाब",
        "्ला"
      ],
      [
        "ला",
        "ङो"
      ],
      [
        "न",
        "ʼ"
      ],
      [
        "म",
        "त"
      ],
      [
        "जो",
        "बो"
      ],
      [
        "बि",
        "लि"
      ],
      [
        "ना",
        "ङा"
      ],
      [
        "थ",
        "ानो"
      ],
      [
        "फ",
        "ाव"
      ],
      [
        "ां",
        "गौ"
      ],
      [
        "दि",
        "सेम्बर"
      ],
      [
        "गि",
        "दि"
      ],
      [
        "सम",
        "ाय"
      ],
      [
        "ं",
        "ग"
      ],
      [
        "ब",
        "सु"
      ],
      [
        "लाय",
        "ो"
      ],
      [
        "द",
        "र"
      ],
      [
        "लां",
        "बाय"
      ],
      [
        "फ",
        "ं"
      ],
      [
        "बे",
        "याव"
      ],
      [
        "मो",
        "खां"
      ],
      [
        "ख",
        "ोन"
      ],
      [
        "भ",
        "ी"
      ],
      [
        "लु",
        "बै"
      ],
      [
        "भे",
        "र"
      ],
      [
        "ान",
        "ा"
      ],
      [
        "मा",
        "थो"
      ],
      [
        "बे",
        "यो"
      ],
      [
        "ग",
        "र"
      ],
      [
        "स",
        "मा"
      ],
      [
        "ाब",
        "ु"
      ],
      [
        "खौ",
        "बो"
      ],
      [
        "फै",
        "दों"
      ],
      [
        "भेर",
        "गाव"
      ],
      [
        "न्",
        "ट"
      ],
      [
        "बु",
        "ङो"
      ],
      [
        "थां",
        "खि"
      ],
      [
        "फै",
        "यो"
      ],
      [
        "गसाइ",
        "गाव"
      ],
      [
        "ग",
        "्ल"
      ],
      [
        "बो",
        "सोर"
      ],
      [
        "थ",
        "ानाय"
      ],
      [
        "ष",
        "्ट"
      ],
      [
        "आख",
        "ाइ"
      ],
      [
        "द",
        "ार"
      ],
      [
        "फ",
        "ारि"
      ],
      [
        "र",
        "नि"
      ],
      [
        "स",
        "ायाव"
      ],
      [
        "ह",
        "ी"
      ],
      [
        "जे",
        "न"
      ],
      [
        "ख",
        "्रि"
      ],
      [
        "थ",
        "ोर"
      ],
      [
        "स",
        "्ट"
      ],
      [
        "जान",
        "ानै"
      ],
      [
        "था",
        "म"
      ],
      [
        "लाय",
        "ाव"
      ],
      [
        "ज",
        "ार"
      ],
      [
        "गो",
        "बां"
      ],
      [
        "आं",
        "बो"
      ],
      [
        "गा",
        "सै"
      ],
      [
        "हो",
        "यो"
      ],
      [
        "ना",
        "गि"
      ],
      [
        "अ",
        "प"
      ],
      [
        "आ",
        "ब"
      ],
      [
        "द",
        "ङ"
      ],
      [
        "म",
        "ाया"
      ],
      [
        "आं",
        "हा"
      ],
      [
        "रा",
        "ज"
      ],
      [
        "ल",
        "ी"
      ],
      [
        "नों",
        "सोर"
      ],
      [
        "हाय",
        "ो"
      ],
      [
        "बय",
        "बो"
      ],
      [
        "थ",
        "ाया"
      ],
      [
        "ब",
        "ारा"
      ],
      [
        "मोन",
        "ो"
      ],
      [
        "....",
        "...."
      ],
      [
        "-",
        "-"
      ],
      [
        "मोन",
        "बाय"
      ],
      [
        "नां",
        "गोन"
      ],
      [
        "राइ",
        "जो"
      ],
      [
        "म",
        "हर"
      ],
      [
        "बि",
        "न"
      ],
      [
        "अ",
        "र"
      ],
      [
        "ल",
        "ानो"
      ],
      [
        "त",
        "्"
      ],
      [
        "ब",
        "ारि"
      ],
      [
        "ए",
        "प"
      ],
      [
        "ख",
        "ान्थि"
      ],
      [
        "ोर",
        "ै"
      ],
      [
        "बे",
        "ल"
      ],
      [
        "भार",
        "त"
      ],
      [
        "थ",
        "ोन"
      ],
      [
        "प",
        "र"
      ],
      [
        "स",
        "ाब"
      ],
      [
        "स",
        "लʼ"
      ],
      [
        "मो",
        "दै"
      ],
      [
        "्रि",
        "ल"
      ],
      [
        "थु",
        "न"
      ],
      [
        "फ",
        "्"
      ],
      [
        "स",
        "ोन"
      ],
      [
        "बाय",
        "दि"
      ],
      [
        "फ",
        "ार"
      ],
      [
        "ज",
        "ोर"
      ],
      [
        "द",
        "्र"
      ],
      [
        "ल",
        "नि"
      ],
      [
        "बि",
        "हा"
      ],
      [
        "गो",
        "हो"
      ],
      [
        "मले",
        "न"
      ],
      [
        "म",
        "ी"
      ],
      [
        "य",
        "ाबो"
      ],
      [
        "स",
        "ी"
      ],
      [
        "गा",
        "हाय"
      ],
      [
        "य",
        "ारि"
      ],
      [
        "जा",
        "खो"
      ],
      [
        "माब",
        "्ल"
      ],
      [
        "ह",
        "ानाय"
      ],
      [
        "गा",
        "ज्रि"
      ],
      [
        "गु",
        "वा"
      ],
      [
        "दु",
        "ं"
      ],
      [
        "स्",
        "व"
      ],
      [
        "ए",
        "फ"
      ],
      [
        "नाय",
        "खौ"
      ],
      [
        "बा",
        "जि"
      ],
      [
        "बर",
        "ʼ"
      ],
      [
        "फै",
        "बाय"
      ],
      [
        "बुं",
        "नो"
      ],
      [
        "माब",
        "ोरै"
      ],
      [
        "जिउ",
        "नि"
      ],
      [
        "गुवा",
        "हा"
      ],
      [
        "द",
        "ाब"
      ],
      [
        "द",
        "से"
      ],
      [
        "म",
        "नि"
      ],
      [
        "..",
        "..."
      ],
      [
        "माब",
        "ार"
      ],
      [
        "बसु",
        "मत"
      ],
      [
        "इ",
        "उ"
      ],
      [
        "ज",
        "ारि"
      ],
      [
        "ट",
        "्र"
      ],
      [
        "ह",
        "ौ"
      ],
      [
        "बि",
        "फ"
      ],
      [
        "बि",
        "सि"
      ],
      [
        "दु",
        "र्"
      ],
      [
        "खाय",
        "ाव"
      ],
      [
        "स",
        "ʼ"
      ],
      [
        "सि",
        "नाय"
      ],
      [
        "खा",
        "लि"
      ],
      [
        "खा",
        "मानि"
      ],
      [
        "जों",
        "नो"
      ],
      [
        "होन",
        "ाय"
      ],
      [
        "अ",
        "न्"
      ],
      [
        "ग",
        "थʼ"
      ],
      [
        "े",
        "न"
      ],
      [
        "मोन",
        "गोन"
      ],
      [
        "थाय",
        "ाव"
      ],
      [
        "खु",
        "ं"
      ],
      [
        "खाय",
        "नो"
      ],
      [
        "जु",
        "न"
      ],
      [
        "बाव",
        "नो"
      ],
      [
        "ओं",
        "खाम"
      ],
      [
        "थ",
        "ौ"
      ],
      [
        "ब",
        "्रा"
      ],
      [
        "गि",
        "बि"
      ],
      [
        "सि",
        "गां"
      ],
      [
        "मा",
        "सि"
      ],
      [
        "ब्",
        "लि"
      ],
      [
        "हे",
        "ं"
      ],
      [
        "गं",
        "से"
      ],
      [
        "थ",
        "ाबाय"
      ],
      [
        "र",
        "ी"
      ],
      [
        "ना",
        "थ"
      ],
      [
        "खा",
        "फा"
      ],
      [
        "गु",
        "मै"
      ],
      [
        "अ",
        "खा"
      ],
      [
        "उ",
        "दां"
      ],
      [
        "त",
        "्र"
      ],
      [
        "नि",
        "बो"
      ],
      [
        "बि",
        "बार"
      ],
      [
        "खौ",
        "रां"
      ],
      [
        "सि",
        "ख"
      ],
      [
        "सि",
        "ङाव"
      ],
      [
        "दा",
        "उ"
      ],
      [
        "गा",
        "मि"
      ],
      [
        "राव",
        "बो"
      ],
      [
        "हि",
        "न्"
      ],
      [
        "गासि",
        "नो"
      ],
      [
        "थ",
        "ान"
      ],
      [
        "या",
        "खै"
      ],
      [
        "सो",
        "लाय"
      ],
      [
        "लां",
        "नो"
      ],
      [
        "जु",
        "लि"
      ],
      [
        "खोम",
        "सि"
      ],
      [
        "स",
        "नि"
      ],
      [
        "स",
        "ानो"
      ],
      [
        "स",
        "ारि"
      ],
      [
        "गो",
        "जौ"
      ],
      [
        "आं",
        "नो"
      ],
      [
        "गोसो",
        "आव"
      ],
      [
        "थे",
        "व"
      ],
      [
        "ज",
        "ʼ"
      ],
      [
        "ब",
        "ड"
      ],
      [
        "बि",
        "लाइ"
      ],
      [
        "ला",
        "जि"
      ],
      [
        "जि",
        "राय"
      ],
      [
        "गु",
        "रि"
      ],
      [
        "बुं",
        "बाय"
      ],
      [
        "य",
        "ान"
      ],
      [
        "्",
        "बो"
      ],
      [
        "सो",
        "दो"
      ],
      [
        "दि",
        "या"
      ],
      [
        "इ",
        "स"
      ],
      [
        "ट",
        "ा"
      ],
      [
        "बो",
        "थोर"
      ],
      [
        "जा",
        "म"
      ],
      [
        "थि",
        "नि"
      ],
      [
        "न्",
        "दा"
      ],
      [
        "मो",
        "दो"
      ],
      [
        "ारा",
        "मा"
      ],
      [
        "लोगो",
        "से"
      ],
      [
        "ए",
        "स"
      ],
      [
        "ज",
        "ी"
      ],
      [
        "व",
        "ि"
      ],
      [
        "बि",
        "र"
      ],
      [
        "मान",
        "ोना"
      ],
      [
        "आले",
        "या"
      ],
      [
        "जोबो",
        "द"
      ],
      [
        "त",
        "ु"
      ],
      [
        "स",
        "ानि"
      ],
      [
        "नो",
        "गोर"
      ],
      [
        "बा",
        "जै"
      ],
      [
        "साय",
        "ख"
      ],
      [
        "गुवाहा",
        "टी"
      ],
      [
        "थेव",
        "बो"
      ],
      [
        "द",
        "ाइ"
      ],
      [
        "न",
        "वाव"
      ],
      [
        "फ",
        "ाय"
      ],
      [
        "भ",
        "ा"
      ],
      [
        "स",
        "ां"
      ],
      [
        "बे",
        "ं"
      ],
      [
        "नागि",
        "र"
      ],
      [
        "झ",
        "े"
      ],
      [
        "ान",
        "ाव"
      ],
      [
        "मि",
        "जि"
      ],
      [
        "गे",
        "ले"
      ],
      [
        "फं",
        "बाय"
      ],
      [
        "इ",
        "न्"
      ],
      [
        "ब",
        "हा"
      ],
      [
        "सो",
        "लों"
      ],
      [
        "रा",
        "हा"
      ],
      [
        "मन",
        "जु"
      ],
      [
        "मेग",
        "न"
      ],
      [
        "ल",
        "पुर"
      ],
      [
        "ु",
        "व"
      ],
      [
        "था",
        "खो"
      ],
      [
        "मु",
        "लु"
      ],
      [
        "हो",
        "बाय"
      ],
      [
        "ब्",
        "दि"
      ],
      [
        "के",
        "ल"
      ],
      [
        "बिसोर",
        "नि"
      ],
      [
        "एप",
        "्रिल"
      ],
      [
        "आ",
        "ग"
      ],
      [
        "आ",
        "बाद"
      ],
      [
        "द",
        "ानो"
      ],
      [
        "द",
        "ाबो"
      ],
      [
        "म",
        "न्"
      ],
      [
        "ह",
        "रो"
      ],
      [
        "ह",
        "ाबो"
      ],
      [
        "मा",
        "लाय"
      ],
      [
        "था",
        "ङा"
      ],
      [
        "बसुमत",
        "ारी"
      ],
      [
        "इ",
        "ं"
      ],
      [
        "औ",
        "र"
      ],
      [
        "ख",
        "ाया"
      ],
      [
        "बे",
        "फोर"
      ],
      [
        "ए",
        "म"
      ],
      [
        "क",
        "रा"
      ],
      [
        "ख",
        "ोना"
      ],
      [
        "भ",
        "ि"
      ],
      [
        "म",
        "ार्"
      ],
      [
        "स",
        "्रा"
      ],
      [
        "नों",
        "नो"
      ],
      [
        "हो",
        "दों"
      ],
      [
        "स्",
        "त"
      ],
      [
        "आसाम",
        "नि"
      ],
      [
        "हिन्",
        "जाव"
      ],
      [
        "आ",
        "खु"
      ],
      [
        "ख",
        "्"
      ],
      [
        "ल",
        "ं"
      ],
      [
        "खा",
        "ङो"
      ],
      [
        "था",
        "ङो"
      ],
      [
        "मिथि",
        "गौ"
      ],
      [
        "बिन",
        "ानाव"
      ],
      [
        "ग",
        "ʼ"
      ],
      [
        "द",
        "ानि"
      ],
      [
        "न",
        "ङ"
      ],
      [
        "ब",
        "ान्"
      ],
      [
        "ाव",
        "नो"
      ],
      [
        "मा",
        "हा"
      ],
      [
        "बा",
        "ग"
      ],
      [
        "मि",
        "हि"
      ],
      [
        "गु",
        "र"
      ],
      [
        "सु",
        "ं"
      ],
      [
        "जोन",
        "ोम"
      ],
      [
        "अ",
        "ब्ला"
      ],
      [
        "आ",
        "थि"
      ],
      [
        "आ",
        "गान"
      ],
      [
        "ए",
        "न"
      ],
      [
        "ए",
        "बा"
      ],
      [
        "बि",
        "ब्दि"
      ],
      [
        "गासि",
        "बो"
      ],
      [
        "रं",
        "जा"
      ],
      [
        "सोदो",
        "ब"
      ],
      [
        "+",
        "+"
      ],
      [
        "आ",
        "ला"
      ],
      [
        "ड",
        "ा"
      ],
      [
        "द",
        "मन"
      ],
      [
        "ब",
        "ाइ"
      ],
      [
        "ह",
        "ानि"
      ],
      [
        "गो",
        "बाव"
      ],
      [
        "फ्र",
        "ोम"
      ],
      [
        "गे",
        "जेराव"
      ],
      [
        "पु",
        "लि"
      ],
      [
        "र",
        "ों"
      ],
      [
        "बि",
        "ल"
      ],
      [
        "नों",
        "थां"
      ],
      [
        "बु",
        "जि"
      ],
      [
        "मु",
        "झे"
      ],
      [
        "फि",
        "नो"
      ],
      [
        "गै",
        "यै"
      ],
      [
        "आफा",
        "द"
      ],
      [
        "ए",
        "क"
      ],
      [
        "द",
        "्"
      ],
      [
        "ला",
        "खि"
      ],
      [
        "बे",
        "खौनो"
      ],
      [
        "गो",
        "लाव"
      ],
      [
        "गो",
        "ग्ल"
      ],
      [
        "गे",
        "जे"
      ],
      [
        "सानै",
        "बो"
      ],
      [
        "करा",
        "झार"
      ],
      [
        "गोग्ल",
        "ै"
      ],
      [
        "क",
        "ार"
      ],
      [
        "क",
        "ले"
      ],
      [
        "ख",
        "न्"
      ],
      [
        "बि",
        "नो"
      ],
      [
        "खा",
        "ल"
      ],
      [
        "नों",
        "हा"
      ],
      [
        "जे",
        "ं"
      ],
      [
        "मो",
        "जा"
      ],
      [
        "दो",
        "लो"
      ],
      [
        "गोर",
        "ा"
      ],
      [
        "रै",
        "नो"
      ],
      [
        "माब्ल",
        "ाबा"
      ],
      [
        "ख",
        "ʼ"
      ],
      [
        "न",
        "ार्"
      ],
      [
        "स",
        "हे"
      ],
      [
        "ां",
        "गोन"
      ],
      [
        "बि",
        "फा"
      ],
      [
        "नं",
        "गौ"
      ],
      [
        "समा",
        "ज"
      ],
      [
        "ही",
        "ं"
      ],
      [
        "ग",
        "ानि"
      ],
      [
        "न",
        "खर"
      ],
      [
        "स",
        "ाया"
      ],
      [
        "बि",
        "जाब"
      ],
      [
        "सा",
        "हा"
      ],
      [
        "न्",
        "ड"
      ],
      [
        "जो",
        "म"
      ],
      [
        "क्",
        "ष"
      ],
      [
        "मले",
        "ना"
      ],
      [
        "ज",
        "न"
      ],
      [
        "र",
        "जि"
      ],
      [
        "ल",
        "ाबाय"
      ],
      [
        "स",
        "ब"
      ],
      [
        "खो",
        "मा"
      ],
      [
        "खि",
        "न्"
      ],
      [
        "बोर",
        "ै"
      ],
      [
        "फराय",
        "सा"
      ],
      [
        "कि",
        "या"
      ],
      [
        "सोम",
        "बोर"
      ],
      [
        "फार",
        "से"
      ],
      [
        "गेजे",
        "र"
      ],
      [
        "प",
        "्"
      ],
      [
        "सि",
        "खार"
      ],
      [
        "जि",
        "र"
      ],
      [
        "दं",
        "मोन"
      ],
      [
        "स्",
        "क"
      ],
      [
        "गोर",
        "्बो"
      ],
      [
        "जान",
        "ांगौ"
      ],
      [
        "थे",
        "फे"
      ],
      [
        "उ",
        "दु"
      ],
      [
        "ग",
        "सं"
      ],
      [
        "द",
        "म"
      ],
      [
        "ब",
        "ोन"
      ],
      [
        "सि",
        "रां"
      ],
      [
        "से",
        "ं"
      ],
      [
        "से",
        "र"
      ],
      [
        "गो",
        "म"
      ],
      [
        "ता",
        "मु"
      ],
      [
        "ब",
        "न्द"
      ],
      [
        "म",
        "द"
      ],
      [
        "नो",
        "जोर"
      ],
      [
        "नाय",
        "नो"
      ],
      [
        "गु",
        "बै"
      ],
      [
        "लो",
        "म"
      ],
      [
        "देर",
        "हा"
      ],
      [
        "आब",
        "ौ"
      ],
      [
        "हौ",
        "वा"
      ],
      [
        "मुलु",
        "ग"
      ],
      [
        "मोजा",
        "ङै"
      ],
      [
        "न",
        "हीं"
      ],
      [
        "प",
        "ार"
      ],
      [
        "य",
        "े"
      ],
      [
        "ल",
        "ानि"
      ],
      [
        "…",
        "."
      ],
      [
        "बि",
        "सायख"
      ],
      [
        "मोन",
        "नो"
      ],
      [
        "आं",
        "गो"
      ],
      [
        "बा",
        "हाय"
      ],
      [
        "दि",
        "नि"
      ],
      [
        "सोर",
        "खौ"
      ],
      [
        "रि",
        "या"
      ],
      [
        "खो",
        "था"
      ],
      [
        "लां",
        "गोन"
      ],
      [
        "ग्र",
        "े"
      ],
      [
        "स्रि",
        "या"
      ],
      [
        "आइ",
        "जो"
      ],
      [
        "थ",
        "्रि"
      ],
      [
        "द",
        "ाया"
      ],
      [
        "ब",
        "ं"
      ],
      [
        "य",
        "ाब"
      ],
      [
        "ल",
        "ाब"
      ],
      [
        "सा",
        "ख्रि"
      ],
      [
        "दा",
        "ल"
      ],
      [
        "फिन",
        "बाय"
      ],
      [
        "चि",
        "रां"
      ],
      [
        "थुन",
        "लाइ"
      ],
      [
        "ुव",
        "ारी"
      ],
      [
        "अ",
        "राय"
      ],
      [
        "आ",
        "लाइ"
      ],
      [
        "ए",
        "ल"
      ],
      [
        "ब",
        "ी"
      ],
      [
        "ल",
        "ाराम"
      ],
      [
        "ह",
        "ाव"
      ],
      [
        "बि",
        "थां"
      ],
      [
        "बो",
        "है"
      ],
      [
        "फोर",
        "ों"
      ],
      [
        "मि",
        "न"
      ],
      [
        "लां",
        "नाय"
      ],
      [
        "गोसो",
        "आ"
      ],
      [
        "लु",
        "ं"
      ],
      [
        "बै",
        "सो"
      ],
      [
        "सं",
        "सार"
      ],
      [
        "हारि",
        "नि"
      ],
      [
        "खन्",
        "थाइ"
      ],
      [
        "ग",
        "्रि"
      ],
      [
        "ड",
        "े"
      ],
      [
        "प",
        "े"
      ],
      [
        "ला",
        "सै"
      ],
      [
        "सोर",
        "ां"
      ],
      [
        "गोर",
        "ो"
      ],
      [
        "के",
        "ट"
      ],
      [
        "थु",
        "र"
      ],
      [
        "ग्र",
        "ो"
      ],
      [
        "मिथि",
        "या"
      ],
      [
        "डि",
        "सेम्बर"
      ],
      [
        "ज्",
        "लाय"
      ],
      [
        "समाय",
        "ना"
      ],
      [
        "सिख",
        "्ला"
      ],
      [
        "ख",
        "ान"
      ],
      [
        "ख",
        "ानि"
      ],
      [
        "य",
        "ार"
      ],
      [
        "र",
        "ʼ"
      ],
      [
        "र",
        "ान"
      ],
      [
        "व",
        "ार"
      ],
      [
        "ह",
        "रा"
      ],
      [
        "थि",
        "खौ"
      ],
      [
        "खा",
        "ला"
      ],
      [
        "मि",
        "रु"
      ],
      [
        "मो",
        "खा"
      ],
      [
        "सै",
        "थो"
      ],
      [
        "थां",
        "बाय"
      ],
      [
        "हर",
        "नि"
      ],
      [
        "बां",
        "सिन"
      ],
      [
        "हम",
        "बाय"
      ],
      [
        "खाथि",
        "याव"
      ],
      [
        "बिलि",
        "फा"
      ],
      [
        "तामु",
        "लपुर"
      ],
      [
        "ज",
        "ल"
      ],
      [
        "द",
        "ʼ"
      ],
      [
        "य",
        "ानो"
      ],
      [
        "ल",
        "खौ"
      ],
      [
        "ह",
        "्"
      ],
      [
        "ै",
        "नो"
      ],
      [
        "बि",
        "लाय"
      ],
      [
        "सा",
        "ह"
      ],
      [
        "सा",
        "ला"
      ],
      [
        "जि",
        "ल"
      ],
      [
        "बु",
        "र"
      ],
      [
        "बु",
        "ङा"
      ],
      [
        "बु",
        "हु"
      ],
      [
        "खाय",
        "ो"
      ],
      [
        "हाब",
        "ाब"
      ],
      [
        "हाया",
        "खै"
      ],
      [
        "फिसा",
        "जो"
      ],
      [
        ":",
        "-"
      ],
      [
        "ल",
        "ानाय"
      ],
      [
        "बि",
        "खा"
      ],
      [
        "गो",
        "जां"
      ],
      [
        "नों",
        "बो"
      ],
      [
        "फै",
        "नो"
      ],
      [
        "फै",
        "दो"
      ],
      [
        "ग्र",
        "ां"
      ],
      [
        "********",
        "********"
      ],
      [
        "फाव",
        "थाइ"
      ],
      [
        "इ",
        "से"
      ],
      [
        "ग",
        "ायाव"
      ],
      [
        "च",
        "्"
      ],
      [
        "थ",
        "र"
      ],
      [
        "य",
        "ु"
      ],
      [
        "श",
        "्"
      ],
      [
        "ोन",
        "्"
      ],
      [
        "सि",
        "गोन"
      ],
      [
        "जा",
        "द"
      ],
      [
        "सो",
        "मोन्"
      ],
      [
        "लि",
        "ए"
      ],
      [
        "बु",
        "ब्लि"
      ],
      [
        "हो",
        "गोन"
      ],
      [
        "थां",
        "दो"
      ],
      [
        "गाव",
        "नो"
      ],
      [
        "गोसो",
        "नि"
      ],
      [
        "खां",
        "बाय"
      ],
      [
        "दाव",
        "हा"
      ],
      [
        "खर",
        "ʼ"
      ],
      [
        "ख",
        "म"
      ],
      [
        "ख",
        "ाबु"
      ],
      [
        "ड",
        "़"
      ],
      [
        "थ",
        "ं"
      ],
      [
        "ब",
        "ʼ"
      ],
      [
        "स",
        "ना"
      ],
      [
        "ह",
        "ाइ"
      ],
      [
        "ह",
        "नै"
      ],
      [
        "बि",
        "माया"
      ],
      [
        "से",
        "बो"
      ],
      [
        "गो",
        "मा"
      ],
      [
        "हर",
        "बाय"
      ],
      [
        "फो",
        "साव"
      ],
      [
        "रे",
        "ल"
      ],
      [
        "ब्र",
        "े"
      ],
      [
        "ज्",
        "यो"
      ],
      [
        "मह",
        "ारा"
      ],
      [
        "स्व",
        "र"
      ],
      [
        "ग",
        "ाया"
      ],
      [
        "द",
        "ौ"
      ],
      [
        "न",
        "ार"
      ],
      [
        "नाय",
        "जों"
      ],
      [
        "बे",
        "व"
      ],
      [
        "सु",
        "जु"
      ],
      [
        "सान",
        "ा"
      ],
      [
        "दु",
        "म"
      ],
      [
        "दे",
        "ं"
      ],
      [
        "हर",
        "दों"
      ],
      [
        "होन",
        "नानै"
      ],
      [
        "बार",
        "ी"
      ],
      [
        "दाव",
        "बाय"
      ],
      [
        "खे",
        "ं"
      ],
      [
        "जाया",
        "खै"
      ],
      [
        "ग्",
        "दाव"
      ],
      [
        "आय",
        "ं"
      ],
      [
        "आ",
        "गै"
      ],
      [
        "क",
        "ार्"
      ],
      [
        "ख",
        "ोर"
      ],
      [
        "ग",
        "म्"
      ],
      [
        "ब",
        "बे"
      ],
      [
        "भ",
        "ु"
      ],
      [
        "स",
        "खौ"
      ],
      [
        "।",
        "\""
      ],
      [
        "बि",
        "टि"
      ],
      [
        "सि",
        "या"
      ],
      [
        "मा",
        "खौ"
      ],
      [
        "जा",
        "थार"
      ],
      [
        "खा",
        "से"
      ],
      [
        "जों",
        "थिया"
      ],
      [
        "थां",
        "नोसै"
      ],
      [
        "लां",
        "दों"
      ],
      [
        "स्",
        "कु"
      ],
      [
        "हाय",
        "ै"
      ],
      [
        "होन",
        "्"
      ],
      [
        "फराय",
        "बाव"
      ],
      [
        "खे",
        "व"
      ],
      [
        "स्र",
        "ां"
      ],
      [
        "बिदि",
        "ब्ला"
      ],
      [
        "दङ",
        "ʼ"
      ],
      [
        "हें",
        "था"
      ],
      [
        "मार्",
        "च"
      ],
      [
        "गम्",
        "भी"
      ],
      [
        "अ",
        "ल"
      ],
      [
        "उ",
        "दै"
      ],
      [
        "ख",
        "ारि"
      ],
      [
        "द",
        "ोर"
      ],
      [
        "ब",
        "न"
      ],
      [
        "बि",
        "खायाव"
      ],
      [
        "थां",
        "नो"
      ],
      [
        "थां",
        "ना"
      ],
      [
        "गोसो",
        "खौ"
      ],
      [
        "थु",
        "म"
      ],
      [
        "अप",
        "ने"
      ],
      [
        "मी",
        "न"
      ],
      [
        "आ",
        "रि"
      ],
      [
        "इ",
        "रा"
      ],
      [
        "ए",
        "रैनो"
      ],
      [
        "च",
        "ी"
      ],
      [
        "ब",
        "नाय"
      ],
      [
        "ला",
        "ख"
      ],
      [
        "मा",
        "खासे"
      ],
      [
        "बा",
        "हा"
      ],
      [
        "रा",
        "गा"
      ],
      [
        "दे",
        "हा"
      ],
      [
        "बुं",
        "दों"
      ],
      [
        "गै",
        "य"
      ],
      [
        "खां",
        "नाय"
      ],
      [
        "गाब",
        "ोन"
      ],
      [
        "जोब",
        "ोर"
      ],
      [
        "ब्र",
        "ह्"
      ],
      [
        "सुबुं",
        "नि"
      ],
      [
        "सां",
        "ग्रां"
      ],
      [
        "बाग",
        "सा"
      ],
      [
        "दाल",
        "गुरि"
      ],
      [
        "बिलिफा",
        "ङा"
      ],
      [
        "अ",
        "ब्लाबो"
      ],
      [
        "फ",
        "ाया"
      ],
      [
        "थि",
        "न"
      ],
      [
        "जि",
        "ल्"
      ],
      [
        "सु",
        "खु"
      ],
      [
        "फै",
        "गौ"
      ],
      [
        "बै",
        "सा"
      ],
      [
        "खालाम",
        "दों"
      ],
      [
        "खां",
        "दों"
      ],
      [
        "बिसोर",
        "खौ"
      ],
      [
        "हाया",
        "खिसै"
      ],
      [
        "हम",
        "दों"
      ],
      [
        "माहा",
        "जोन"
      ],
      [
        "आला",
        "सि"
      ],
      [
        "अ",
        "रु"
      ],
      [
        "आ",
        "न्"
      ],
      [
        "द",
        "ी"
      ],
      [
        "व",
        "न"
      ],
      [
        "ह",
        "ान"
      ],
      [
        "बि",
        "बो"
      ],
      [
        "बि",
        "याब"
      ],
      [
        "गो",
        "थार"
      ],
      [
        "गो",
        "जान"
      ],
      [
        "मोन",
        "नाय"
      ],
      [
        "था",
        "गोन"
      ],
      [
        "लाय",
        "बाय"
      ],
      [
        "थाय",
        "नि"
      ],
      [
        "गौ",
        "मोन"
      ],
      [
        "ले",
        "ं"
      ],
      [
        "फै",
        "गोन"
      ],
      [
        "गोर",
        "ोन्"
      ],
      [
        "फे",
        "ब्र"
      ],
      [
        "अन",
        "नाय"
      ],
      [
        "बाथ",
        "्र"
      ],
      [
        "मानसि",
        "या"
      ],
      [
        "बाथ्रा",
        "खौ"
      ],
      [
        "आन",
        "ारी"
      ],
      [
        "मोदो",
        "म"
      ],
      [
        "फ्रोम",
        "बो"
      ],
      [
        "खाला",
        "मो"
      ],
      [
        "महारा",
        "जा"
      ],
      [
        "न",
        "ख"
      ],
      [
        "न",
        "ी"
      ],
      [
        "स",
        "हाय"
      ],
      [
        "नो",
        "बो"
      ],
      [
        "ना",
        "गा"
      ],
      [
        "जा",
        "से"
      ],
      [
        "सा",
        "द"
      ],
      [
        "न्",
        "थि"
      ],
      [
        "दा",
        "हा"
      ],
      [
        "गा",
        "मिनि"
      ],
      [
        "गा",
        "हाम"
      ],
      [
        "ब्",
        "लानो"
      ],
      [
        "सान",
        "बाय"
      ],
      [
        "सान",
        "स्रि"
      ],
      [
        "लाइ",
        "जाम"
      ],
      [
        "चि",
        "त"
      ],
      [
        "गासै",
        "बो"
      ],
      [
        "जिल्",
        "लायाव"
      ],
      [
        "ए",
        "फा"
      ],
      [
        "क",
        "्र"
      ],
      [
        "ग",
        "ाबो"
      ],
      [
        "ज",
        "र"
      ],
      [
        "ब",
        "बाव"
      ],
      [
        "ब",
        "ाबु"
      ],
      [
        "सि",
        "बि"
      ],
      [
        "सोर",
        "बा"
      ],
      [
        "....",
        ".."
      ],
      [
        "फो",
        "द"
      ],
      [
        "खे",
        "ब"
      ],
      [
        "क्",
        "स"
      ],
      [
        "साव",
        "गारि"
      ],
      [
        "गां",
        "से"
      ],
      [
        "बाद",
        "ल"
      ],
      [
        "हार",
        "सि"
      ],
      [
        "जारि",
        "मिन"
      ],
      [
        "सहे",
        "न"
      ],
      [
        "गोरो",
        "ब"
      ],
      [
        "गम्भी",
        "र"
      ],
      [
        "ब्रह्",
        "म"
      ],
      [
        "ग",
        "य"
      ],
      [
        "त",
        "्रि"
      ],
      [
        "म",
        "ायाव"
      ],
      [
        "श",
        "ा"
      ],
      [
        "ह",
        "ान्"
      ],
      [
        "ह",
        "गार"
      ],
      [
        "हा",
        "गोन"
      ],
      [
        "लाय",
        "नो"
      ],
      [
        "गि",
        "यान"
      ],
      [
        "मो",
        "ग"
      ],
      [
        "सान",
        "से"
      ],
      [
        "रे",
        "ब"
      ],
      [
        "बेसे",
        "न"
      ],
      [
        "खोन",
        "्"
      ],
      [
        "सʼ",
        "ना"
      ],
      [
        "जी",
        "वन"
      ],
      [
        "नङ",
        "ाब्ला"
      ],
      [
        "पुलि",
        "स"
      ],
      [
        "सें",
        "ग्रा"
      ],
      [
        "अ",
        "नाथ"
      ],
      [
        "इ",
        "न"
      ],
      [
        "ओ",
        "न"
      ],
      [
        "भ",
        "ट"
      ],
      [
        "म",
        "ं"
      ],
      [
        "म",
        "ारि"
      ],
      [
        "र",
        "ानि"
      ],
      [
        "नि",
        "या"
      ],
      [
        "बि",
        "जिर"
      ],
      [
        "बो",
        "यो"
      ],
      [
        "हा",
        "ग्रा"
      ],
      [
        "सु",
        "र"
      ],
      [
        "खु",
        "गा"
      ],
      [
        "याव",
        "नो"
      ],
      [
        "थार",
        "ा"
      ],
      [
        "माव",
        "नो"
      ],
      [
        "बाव",
        "ो"
      ],
      [
        "जोब",
        "था"
      ],
      [
        "बाद",
        "ला"
      ],
      [
        "स्र",
        "ी"
      ],
      [
        "कु",
        "मार"
      ],
      [
        "राज",
        "खान्थि"
      ],
      [
        "दुर्",
        "जा"
      ],
      [
        "अनाथ",
        "ी"
      ],
      [
        "ओन",
        "सो"
      ],
      [
        "ब",
        "ानाय"
      ],
      [
        "ह",
        "राव"
      ],
      [
        "बि",
        "बारि"
      ],
      [
        "गो",
        "जा"
      ],
      [
        "गो",
        "दै"
      ],
      [
        "जा",
        "है"
      ],
      [
        "जि",
        "त"
      ],
      [
        "दा",
        "म"
      ],
      [
        "फोर",
        "ाव"
      ],
      [
        "रा",
        "दाब"
      ],
      [
        "फा",
        "लि"
      ],
      [
        "लो",
        "ब"
      ],
      [
        "बोर",
        "ाय"
      ],
      [
        "सेप",
        "्"
      ],
      [
        "आखाइ",
        "याव"
      ],
      [
        "आग",
        "ष्ट"
      ],
      [
        "फेब्र",
        "ुवारी"
      ],
      [
        "अ",
        "म"
      ],
      [
        "आ",
        "बुं"
      ],
      [
        "त",
        "ेम्बर"
      ],
      [
        "व",
        "े"
      ],
      [
        "श",
        "ि"
      ],
      [
        "स",
        "न्"
      ],
      [
        "ह",
        "ू"
      ],
      [
        "ोन",
        "ो"
      ],
      [
        "बि",
        "मानि"
      ],
      [
        "ना",
        "था"
      ],
      [
        "गो",
        "मो"
      ],
      [
        "गो",
        "ख्र"
      ],
      [
        "जा",
        "होन"
      ],
      [
        "दि",
        "हु"
      ],
      [
        "गु",
        "न्दा"
      ],
      [
        "सु",
        "ला"
      ],
      [
        "थां",
        "नाय"
      ],
      [
        "थां",
        "गोन"
      ],
      [
        "जाय",
        "गा"
      ],
      [
        "थार",
        "बाय"
      ],
      [
        "लाइ",
        "मोन"
      ],
      [
        "रु",
        "प"
      ],
      [
        "्ल",
        "ाबो"
      ],
      [
        "सिम",
        "बो"
      ],
      [
        "हम",
        "नो"
      ],
      [
        "नोगोर",
        "ारि"
      ],
      [
        "इरा",
        "ग्दाव"
      ],
      [
        "गोरोन्",
        "थि"
      ],
      [
        "!",
        "!"
      ],
      [
        "आ",
        "प"
      ],
      [
        "आ",
        "बो"
      ],
      [
        "आ",
        "यै"
      ],
      [
        "ख",
        "ाब"
      ],
      [
        "ग",
        "ी"
      ],
      [
        "द",
        "ख"
      ],
      [
        "ाय",
        "ो"
      ],
      [
        "बि",
        "फां"
      ],
      [
        "मोन",
        "दों"
      ],
      [
        "दि",
        "न्थि"
      ],
      [
        "...",
        "।"
      ],
      [
        "नों",
        "लाय"
      ],
      [
        "जों",
        "खौ"
      ],
      [
        "फोर",
        "माय"
      ],
      [
        "मे",
        "ले"
      ],
      [
        "है",
        "ं"
      ],
      [
        "लाइ",
        "न"
      ],
      [
        "रै",
        "खाथि"
      ],
      [
        "जेरै",
        "बो"
      ],
      [
        "थों",
        "सै"
      ],
      [
        "खाफा",
        "ल"
      ],
      [
        "जें",
        "ना"
      ],
      [
        "आ",
        "ल"
      ],
      [
        "आ",
        "न्द"
      ],
      [
        "क",
        "वि"
      ],
      [
        "ग",
        "ान्"
      ],
      [
        "च",
        "े"
      ],
      [
        "य",
        "ों"
      ],
      [
        "्",
        "ड"
      ],
      [
        "नाय",
        "बाय"
      ],
      [
        "बे",
        "निफ्राय"
      ],
      [
        "बे",
        "बादि"
      ],
      [
        "मोन",
        "नै"
      ],
      [
        "जा",
        "थाय"
      ],
      [
        "सो",
        "ले"
      ],
      [
        "जों",
        "बो"
      ],
      [
        "था",
        "सारि"
      ],
      [
        "लाय",
        "नाय"
      ],
      [
        "जो",
        "हो"
      ],
      [
        "फा",
        "गु"
      ],
      [
        "फा",
        "लां"
      ],
      [
        "थां",
        "नानै"
      ],
      [
        "सान",
        "दों"
      ],
      [
        "हाब",
        "फैयो"
      ],
      [
        "होन",
        "ानै"
      ],
      [
        "खालाम",
        "बाय"
      ],
      [
        "सम",
        "नि"
      ],
      [
        "फु",
        "र"
      ],
      [
        "नं",
        "खाय"
      ],
      [
        "न्द",
        "्र"
      ],
      [
        "बेसे",
        "बां"
      ],
      [
        "बेयाव",
        "नो"
      ],
      [
        "सेप्",
        "तेम्बर"
      ],
      [
        "उ",
        "जि"
      ],
      [
        "उ",
        "दालगुरि"
      ],
      [
        "क",
        "म"
      ],
      [
        "च",
        "ा"
      ],
      [
        "य",
        "ानि"
      ],
      [
        "व",
        "ो"
      ],
      [
        "बि",
        "सार"
      ],
      [
        "बो",
        "लो"
      ],
      [
        "ना",
        "गार"
      ],
      [
        "जि",
        "ना"
      ],
      [
        "फोर",
        "मान"
      ],
      [
        "रा",
        "जा"
      ],
      [
        "रो",
        "जा"
      ],
      [
        "रो",
        "खोम"
      ],
      [
        "जो",
        "बा"
      ],
      [
        "सु",
        "थुर"
      ],
      [
        "हो",
        "म"
      ],
      [
        "फै",
        "या"
      ],
      [
        "फै",
        "सालि"
      ],
      [
        "गै",
        "ला"
      ],
      [
        "का",
        "जल"
      ],
      [
        "फो",
        "जोब"
      ],
      [
        "आसा",
        "माव"
      ],
      [
        "हां",
        "मा"
      ],
      [
        "राम",
        "नाथा"
      ],
      [
        "फ्",
        "ले"
      ],
      [
        "द्र",
        "ाय"
      ],
      [
        "मोग",
        "थां"
      ],
      [
        "आ",
        "खायाव"
      ],
      [
        "ख",
        "हा"
      ],
      [
        "ख",
        "ानाय"
      ],
      [
        "द",
        "ान्"
      ],
      [
        "ध",
        "ान"
      ],
      [
        "फ",
        "ाइ"
      ],
      [
        "ब",
        "द"
      ],
      [
        "सि",
        "गा"
      ],
      [
        "नाय",
        "ो"
      ],
      [
        "नाय",
        "हरो"
      ],
      [
        "बो",
        "ला"
      ],
      [
        "गो",
        "दो"
      ],
      [
        "रा",
        "ज्यो"
      ],
      [
        "गि",
        "नाय"
      ],
      [
        "मो",
        "सौ"
      ],
      [
        "सु",
        "लि"
      ],
      [
        "फा",
        "जाब"
      ],
      [
        "थां",
        "दों"
      ],
      [
        "होन",
        "ा"
      ],
      [
        "गे",
        "ट"
      ],
      [
        "हे",
        "फाजाब"
      ],
      [
        "मानो",
        "थो"
      ],
      [
        "ब्र",
        "ै"
      ],
      [
        "नं",
        "लिया"
      ],
      [
        "बान",
        "ु"
      ],
      [
        "जेराव",
        "बो"
      ],
      [
        "लुबै",
        "यो"
      ],
      [
        "फारि",
        "या"
      ],
      [
        "मलेन",
        "खौ"
      ],
      [
        "किया",
        "जुलि"
      ],
      [
        "थेफे",
        "न"
      ],
      [
        "मोखा",
        "ङाव"
      ],
      [
        "दें",
        "खो"
      ],
      [
        "2",
        "0"
      ],
      [
        "अ",
        "ं"
      ],
      [
        "आ",
        "खाय"
      ],
      [
        "आ",
        "र्"
      ],
      [
        "ब",
        "ाब"
      ],
      [
        "ल",
        "ार"
      ],
      [
        "े",
        "कियाजुलि"
      ],
      [
        "बि",
        "दा"
      ],
      [
        "बि",
        "पि"
      ],
      [
        "ोर",
        "ोम"
      ],
      [
        "सि",
        "बाय"
      ],
      [
        "बो",
        "सोरनि"
      ],
      [
        "बे",
        "बो"
      ],
      [
        "बे",
        "खेव"
      ],
      [
        "से",
        "राव"
      ],
      [
        "गो",
        "थै"
      ],
      [
        "जा",
        "गाय"
      ],
      [
        "बाय",
        "ो"
      ],
      [
        "गा",
        "खो"
      ],
      [
        "मु",
        "ङा"
      ],
      [
        "फै",
        "याखै"
      ],
      [
        "दं",
        "ना"
      ],
      [
        "है",
        "बाय"
      ],
      [
        "वा",
        "द"
      ],
      [
        "ग्र",
        "ाय"
      ],
      [
        "मिथि",
        "नो"
      ],
      [
        "मिथि",
        "बाय"
      ],
      [
        "जोब",
        "नाय"
      ],
      [
        "साइ",
        "केल"
      ],
      [
        "एसे",
        "बां"
      ],
      [
        "समाव",
        "नो"
      ],
      [
        "स्वर",
        "चित"
      ],
      [
        "खोन्",
        "दो"
      ],
      [
        "कवि",
        "ता"
      ],
      [
        "जोहो",
        "लाव"
      ],
      [
        ")",
        "-"
      ],
      [
        "आ",
        "द"
      ],
      [
        "ख",
        "ं"
      ],
      [
        "ङ",
        "ानो"
      ],
      [
        "त",
        "र"
      ],
      [
        "थ",
        "गाय"
      ],
      [
        "द",
        "ू"
      ],
      [
        "ष",
        "्"
      ],
      [
        "ह",
        "ार्"
      ],
      [
        "सि",
        "नो"
      ],
      [
        "जा",
        "दोंमोन"
      ],
      [
        "बा",
        "क"
      ],
      [
        "था",
        "ल"
      ],
      [
        "जे",
        "ब्लाबो"
      ],
      [
        "मो",
        "सा"
      ],
      [
        "गै",
        "लिया"
      ],
      [
        "खाय",
        "से"
      ],
      [
        "वा",
        "ल"
      ],
      [
        "रां",
        "नि"
      ],
      [
        "हे",
        "र"
      ],
      [
        "नु",
        "नानै"
      ],
      [
        "जोब",
        "बाय"
      ],
      [
        "मै",
        "ं"
      ],
      [
        "जानाय",
        "नि"
      ],
      [
        "बेल",
        "स्रि"
      ],
      [
        "++",
        "++"
      ],
      [
        "दोलो",
        "आ"
      ],
      [
        "बोन",
        "ाय"
      ],
      [
        "बेव",
        "हाय"
      ],
      [
        "बाहा",
        "गो"
      ],
      [
        "ख",
        "ाना"
      ],
      [
        "ज",
        "ाबो"
      ],
      [
        "ल",
        "ोर"
      ],
      [
        "ह",
        "ाबाय"
      ],
      [
        "्",
        "लि"
      ],
      [
        "।",
        "।"
      ],
      [
        "बि",
        "थि"
      ],
      [
        "सि",
        "नि"
      ],
      [
        "हा",
        "ल"
      ],
      [
        "आं",
        "जों"
      ],
      [
        "सो",
        "लि"
      ],
      [
        "दि",
        "न"
      ],
      [
        "जो",
        "मै"
      ],
      [
        "ङा",
        "खै"
      ],
      [
        "सु",
        "नि"
      ],
      [
        "म्",
        "बि"
      ],
      [
        "म्",
        "बा"
      ],
      [
        "**",
        "*"
      ],
      [
        "ने",
        "व"
      ],
      [
        "रु",
        "ं"
      ],
      [
        "रु",
        "वा"
      ],
      [
        "गैया",
        "मोन"
      ],
      [
        "जान",
        "ा"
      ],
      [
        "जौ",
        "गा"
      ],
      [
        "फराय",
        "सालि"
      ],
      [
        "गोनां",
        "थि"
      ],
      [
        "ग्",
        "लि"
      ],
      [
        "प्र",
        "े"
      ],
      [
        "उन्",
        "दै"
      ],
      [
        "सोम",
        "जि"
      ],
      [
        "मेग",
        "नाव"
      ],
      [
        "बिफ",
        "ानि"
      ],
      [
        "फाय",
        "ो"
      ],
      [
        "आबाद",
        "ारि"
      ],
      [
        "खिन्",
        "था"
      ],
      [
        "जिल",
        "्ला"
      ],
      [
        "बैसा",
        "गु"
      ],
      [
        "दुर्जा",
        "ङा"
      ],
      [
        "सिगा",
        "ङाव"
      ],
      [
        "बिपि",
        "एफ"
      ],
      [
        "?",
        ":"
      ],
      [
        "आ",
        "बै"
      ],
      [
        "क",
        "ल"
      ],
      [
        "ख",
        "्ल"
      ],
      [
        "ग",
        "ल"
      ],
      [
        "ट",
        "ार"
      ],
      [
        "प",
        "ू"
      ],
      [
        "फ",
        "ान"
      ],
      [
        "फ",
        "ोन"
      ],
      [
        "बि",
        "ला"
      ],
      [
        "बि",
        "खाया"
      ],
      [
        "्र",
        "ी"
      ],
      [
        "बे",
        "र"
      ],
      [
        "गो",
        "लोम"
      ],
      [
        "हा",
        "ला"
      ],
      [
        "जा",
        "थाव"
      ],
      [
        "बा",
        "जु"
      ],
      [
        "थि",
        "यारि"
      ],
      [
        "दि",
        "से"
      ],
      [
        "नों",
        "सोरनि"
      ],
      [
        "बर",
        "ाय"
      ],
      [
        "गु",
        "न्द"
      ],
      [
        "गु",
        "दुं"
      ],
      [
        "जे",
        "पि"
      ],
      [
        "जे",
        "केट"
      ],
      [
        "मु",
        "लि"
      ],
      [
        "दे",
        "श"
      ],
      [
        "बुं",
        "नाय"
      ],
      [
        "खालाम",
        "नानै"
      ],
      [
        "रु",
        "म"
      ],
      [
        "्ल",
        "ानि"
      ],
      [
        "बिसोर",
        "ो"
      ],
      [
        "बोर",
        "ो"
      ],
      [
        "मिनि",
        "ट"
      ],
      [
        "हाबा",
        "खौ"
      ],
      [
        "ख्र",
        "ां"
      ],
      [
        "ओंखार",
        "लाङो"
      ],
      [
        "हादोर",
        "सायाव"
      ],
      [
        "सर",
        "क"
      ],
      [
        "आब",
        "ʼ"
      ],
      [
        "दुर्",
        "जां"
      ],
      [
        "त्र",
        "ी"
      ],
      [
        "तु",
        "लाराम"
      ],
      [
        "मिहि",
        "रा"
      ],
      [
        "कले",
        "ज"
      ],
      [
        "नखर",
        "नि"
      ],
      [
        "सोमोन्",
        "दो"
      ],
      [
        "'",
        "'"
      ],
      [
        "क",
        "नि"
      ],
      [
        "ग",
        "नाय"
      ],
      [
        "ग",
        "न्"
      ],
      [
        "ग",
        "ले"
      ],
      [
        "ज",
        "य"
      ],
      [
        "फ",
        "ानि"
      ],
      [
        "फ",
        "ार्"
      ],
      [
        "व",
        "ानि"
      ],
      [
        "स",
        "ङो"
      ],
      [
        "स",
        "मान"
      ],
      [
        "ला",
        "उ"
      ],
      [
        "सि",
        "ब"
      ],
      [
        "गो",
        "थौ"
      ],
      [
        "हा",
        "स्"
      ],
      [
        "मोन",
        "थि"
      ],
      [
        "सा",
        "म"
      ],
      [
        "जों",
        "हा"
      ],
      [
        "जों",
        "थि"
      ],
      [
        "हो",
        "आ"
      ],
      [
        "फि",
        "न्"
      ],
      [
        "सान",
        "नि"
      ],
      [
        "मे",
        "रे"
      ],
      [
        "गाव",
        "खौ"
      ],
      [
        "गाव",
        "खौनो"
      ],
      [
        "थार",
        "गौ"
      ],
      [
        "हाय",
        "ाव"
      ],
      [
        "खालाम",
        "नाय"
      ],
      [
        "थु",
        "लुं"
      ],
      [
        "लै",
        "थो"
      ],
      [
        "फो",
        "थाय"
      ],
      [
        "हु",
        "र"
      ],
      [
        "जिउ",
        "खौ"
      ],
      [
        "ब्र",
        "ु"
      ],
      [
        "हाबा",
        "फारि"
      ],
      [
        "ख्र",
        "ु"
      ],
      [
        "सोरनि",
        "बा"
      ],
      [
        "दुखु",
        "नि"
      ],
      [
        "गोरबो",
        "नि"
      ],
      [
        "माब्ल",
        "ाब"
      ],
      [
        "बड",
        "़"
      ],
      [
        "मद",
        "द"
      ],
      [
        "जिना",
        "हारि"
      ],
      [
        "बाक",
        "सा"
      ],
      [
        "?",
        "?"
      ],
      [
        "ए",
        "खन"
      ],
      [
        "ख",
        "्रा"
      ],
      [
        "ज",
        "ानि"
      ],
      [
        "द",
        "्रि"
      ],
      [
        "फ",
        "्रि"
      ],
      [
        "फ",
        "ान्"
      ],
      [
        "फ",
        "्ला"
      ],
      [
        "ब",
        "ौ"
      ],
      [
        "ह",
        "ं"
      ],
      [
        "ह",
        "ानो"
      ],
      [
        "सि",
        "गौ"
      ],
      [
        "मा",
        "ल"
      ],
      [
        "मा",
        "हारि"
      ],
      [
        "बे",
        "रे"
      ],
      [
        "गो",
        "थां"
      ],
      [
        "जा",
        "थि"
      ],
      [
        "न्",
        "य"
      ],
      [
        "दा",
        "का"
      ],
      [
        "सोर",
        "जि"
      ],
      [
        "गु",
        "सुं"
      ],
      [
        "जे",
        "न्"
      ],
      [
        "म्",
        "फा"
      ],
      [
        "मे",
        "ल"
      ],
      [
        "मे",
        "थाइ"
      ],
      [
        "दे",
        "ब"
      ],
      [
        "खु",
        "सि"
      ],
      [
        "खु",
        "लु"
      ],
      [
        "है",
        "दों"
      ],
      [
        "है",
        "यो"
      ],
      [
        "स्",
        "ला"
      ],
      [
        "सार",
        "नि"
      ],
      [
        "थाखाय",
        "नो"
      ],
      [
        "जाब",
        "्र"
      ],
      [
        "हारि",
        "मु"
      ],
      [
        "मोन्",
        "नाय"
      ],
      [
        "आन",
        "जाद"
      ],
      [
        "खन",
        "से"
      ],
      [
        "गिदि",
        "र"
      ],
      [
        "खोना",
        "सं"
      ],
      [
        "मिहि",
        "र"
      ],
      [
        "आलाइ",
        "स्रिया"
      ],
      [
        "च्",
        "छ"
      ],
      [
        "हू",
        "ं"
      ],
      [
        "अ",
        "ब"
      ],
      [
        "आ",
        "ध"
      ],
      [
        "इ",
        "यु"
      ],
      [
        "ओ",
        "इ"
      ],
      [
        "ख",
        "ाइ"
      ],
      [
        "घ",
        "ा"
      ],
      [
        "र",
        "मा"
      ],
      [
        "ह",
        "ʼ"
      ],
      [
        "बि",
        "स"
      ],
      [
        "बि",
        "माय"
      ],
      [
        "्र",
        "ै"
      ],
      [
        "बे",
        "थʼ"
      ],
      [
        "गो",
        "जाम"
      ],
      [
        "मोन",
        "ै"
      ],
      [
        "जा",
        "फुं"
      ],
      [
        "आं",
        "खाल"
      ],
      [
        "दा",
        "गाब"
      ],
      [
        "गि",
        "र"
      ],
      [
        "जे",
        "ब्ला"
      ],
      [
        "ब्",
        "बाय"
      ],
      [
        "गाव",
        "जों"
      ],
      [
        "है",
        "नो"
      ],
      [
        "थार",
        "नाय"
      ],
      [
        "थार",
        "दों"
      ],
      [
        "माव",
        "नाय"
      ],
      [
        "लाम",
        "ायाव"
      ],
      [
        "स्",
        "नि"
      ],
      [
        "हाब",
        "नानै"
      ],
      [
        "खै",
        "मोन"
      ],
      [
        "नङा",
        "मोन"
      ],
      [
        "माब",
        "्ला"
      ],
      [
        "्ल",
        "ी"
      ],
      [
        "नु",
        "नो"
      ],
      [
        "क्",
        "त"
      ],
      [
        "अन",
        "लाय"
      ],
      [
        "गां",
        "व"
      ],
      [
        "हाम",
        "जो"
      ],
      [
        "गोरबो",
        "आव"
      ],
      [
        "बिलि",
        "फां"
      ],
      [
        "एफ",
        "्रिल"
      ],
      [
        "बाजि",
        "बाय"
      ],
      [
        "ट्र",
        "े"
      ],
      [
        "गथʼ",
        "वा"
      ],
      [
        "मासि",
        "नि"
      ],
      [
        "थेफे",
        "ना"
      ],
      [
        "बाथ्र",
        "ाया"
      ],
      [
        "रोखोम",
        "नि"
      ],
      [
        "20",
        "2"
      ],
      [
        "थुलुं",
        "गा"
      ],
      [
        "आ",
        "नो"
      ],
      [
        "क",
        "ं"
      ],
      [
        "क",
        "ौ"
      ],
      [
        "क",
        "लि"
      ],
      [
        "ख",
        "ारा"
      ],
      [
        "ग",
        "्ला"
      ],
      [
        "त",
        "ो"
      ],
      [
        "फ",
        "ब"
      ],
      [
        "फ",
        "ानो"
      ],
      [
        "र",
        "ौ"
      ],
      [
        "ल",
        "ारामा"
      ],
      [
        "स",
        "क"
      ],
      [
        "ह",
        "ान्थि"
      ],
      [
        "।",
        ":"
      ],
      [
        "बि",
        "बान"
      ],
      [
        "बि",
        "हामजो"
      ],
      [
        "ना",
        "इ"
      ],
      [
        "से",
        "न्"
      ],
      [
        "जा",
        "लांबाय"
      ],
      [
        "सा",
        "थाम"
      ],
      [
        "खा",
        "लामा"
      ],
      [
        "दा",
        "सो"
      ],
      [
        "दा",
        "सिमबो"
      ],
      [
        "गु",
        "ं"
      ],
      [
        "गु",
        "दि"
      ],
      [
        "गु",
        "वार"
      ],
      [
        "फै",
        "फिन"
      ],
      [
        "दु",
        "ब"
      ],
      [
        "माव",
        "ो"
      ],
      [
        "जु",
        "जि"
      ],
      [
        "गोसो",
        "म"
      ],
      [
        "गे",
        "व"
      ],
      [
        "जान",
        "ां"
      ],
      [
        "हि",
        "न"
      ],
      [
        "सिम",
        "ला"
      ],
      [
        "फो",
        "ले"
      ],
      [
        "फे",
        "रा"
      ],
      [
        "खे",
        "र"
      ],
      [
        "मिनि",
        "नाय"
      ],
      [
        "हां",
        "खो"
      ],
      [
        "लामा",
        "जों"
      ],
      [
        "सान्",
        "थ्रि"
      ],
      [
        "आख",
        "ल"
      ],
      [
        "बिदि",
        "नो"
      ],
      [
        "जोबो",
        "त"
      ],
      [
        "राइजो",
        "फोर"
      ],
      [
        "समाज",
        "नि"
      ],
      [
        "बिटि",
        "सि"
      ],
      [
        "फार्",
        "से"
      ],
      [
        "e",
        "r"
      ],
      [
        "अ",
        "सम"
      ],
      [
        "उ",
        "खै"
      ],
      [
        "च",
        "ु"
      ],
      [
        "ज",
        "्र"
      ],
      [
        "ढ",
        "ेकियाजुलि"
      ],
      [
        "द",
        "र्"
      ],
      [
        "फ",
        "ारा"
      ],
      [
        "म",
        "ंग"
      ],
      [
        "र",
        "न्"
      ],
      [
        "ह",
        "ले"
      ],
      [
        "नि",
        "जोम"
      ],
      [
        "सि",
        "मा"
      ],
      [
        "सि",
        "ना"
      ],
      [
        "सि",
        "खाव"
      ],
      [
        "मा",
        "ँ"
      ],
      [
        "गो",
        "ब्र"
      ],
      [
        "मोन",
        "हा"
      ],
      [
        "थि",
        "ङै"
      ],
      [
        "दि",
        "ल"
      ],
      [
        "नों",
        "जों"
      ],
      [
        "दा",
        "स"
      ],
      [
        "दा",
        "बि"
      ],
      [
        "मु",
        "ला"
      ],
      [
        "हो",
        "दो"
      ],
      [
        "सान",
        "नानै"
      ],
      [
        "मे",
        "न्ट"
      ],
      [
        "मे",
        "री"
      ],
      [
        "दे",
        "न"
      ],
      [
        "जाय",
        "ै"
      ],
      [
        "नां",
        "नाय"
      ],
      [
        "थार",
        "गोन"
      ],
      [
        "हर",
        "नो"
      ],
      [
        "होन",
        "ांगौ"
      ],
      [
        "खै",
        "फोद"
      ],
      [
        "गोर",
        "लै"
      ],
      [
        "खालाम",
        "बावनो"
      ],
      [
        "गाब",
        "नो"
      ],
      [
        "मानसि",
        "नि"
      ],
      [
        "सान्",
        "दों"
      ],
      [
        "बय",
        "निबो"
      ],
      [
        "सर",
        "कार"
      ],
      [
        "उन्दु",
        "नो"
      ],
      [
        "नागि",
        "रो"
      ],
      [
        "बिफ",
        "ान"
      ],
      [
        "सोलों",
        "थाइ"
      ],
      [
        "स्त",
        "ान"
      ],
      [
        "दानि",
        "या"
      ],
      [
        "बान्",
        "था"
      ],
      [
        "खाल",
        "ार"
      ],
      [
        "गैय",
        "ि"
      ],
      [
        "अरु",
        "ना"
      ],
      [
        "मं",
        "त्री"
      ],
      [
        "दिहु",
        "न"
      ],
      [
        "जाब्र",
        "ब"
      ],
      [
        "कं",
        "ग्रे"
      ],
      [
        "अ",
        "फि"
      ],
      [
        "अ",
        "नु"
      ],
      [
        "उ",
        "स"
      ],
      [
        "ए",
        "बसु"
      ],
      [
        "ग",
        "ई"
      ],
      [
        "ग",
        "न"
      ],
      [
        "ग",
        "ानो"
      ],
      [
        "त",
        "ू"
      ],
      [
        "ध",
        "न्य"
      ],
      [
        "फ",
        "ʼ"
      ],
      [
        "य",
        "न"
      ],
      [
        "य",
        "ारी"
      ],
      [
        "र",
        "जे"
      ],
      [
        "श",
        "न"
      ],
      [
        "स",
        "ल"
      ],
      [
        "ो",
        "द"
      ],
      [
        "ला",
        "दों"
      ],
      [
        "खौ",
        "से"
      ],
      [
        "खौ",
        "सो"
      ],
      [
        "बे",
        "दि"
      ],
      [
        "जा",
        "खां"
      ],
      [
        "जा",
        "थों"
      ],
      [
        "आं",
        "लाय"
      ],
      [
        "सो",
        "माव"
      ],
      [
        "सा",
        "थ"
      ],
      [
        "थि",
        "क"
      ],
      [
        "जि",
        "ला"
      ],
      [
        "बर",
        "ा"
      ],
      [
        "फोर",
        "जों"
      ],
      [
        "लाय",
        "दों"
      ],
      [
        "रा",
        "जि"
      ],
      [
        "मि",
        "ज"
      ],
      [
        "मि",
        "ल"
      ],
      [
        "मि",
        "सन"
      ],
      [
        "सोर",
        "गिदि"
      ],
      [
        "जो",
        "ब्बाय"
      ],
      [
        "सै",
        "बारी"
      ],
      [
        "फि",
        "ना"
      ],
      [
        "फि",
        "थाइ"
      ],
      [
        "आव",
        "गाय"
      ],
      [
        "हाब",
        "ाया"
      ],
      [
        "खालाम",
        "गोन"
      ],
      [
        "ने",
        "ल"
      ],
      [
        "रै",
        "खा"
      ],
      [
        "बेसे",
        "बा"
      ],
      [
        "लान",
        "ा"
      ],
      [
        "मोना",
        "बिलि"
      ],
      [
        "सों",
        "बाय"
      ],
      [
        "राम",
        "नाथ"
      ],
      [
        "नʼ",
        "वाव"
      ],
      [
        "जेन",
        "नाय"
      ],
      [
        "कले",
        "जाव"
      ],
      [
        "बिसायख",
        "थि"
      ],
      [
        "मीन",
        "ारामा"
      ],
      [
        "फालां",
        "गि"
      ],
      [
        "इयु",
        "न"
      ],
      [
        "धन्य",
        "वाद"
      ],
      [
        "ख",
        "राव"
      ],
      [
        "ग",
        "थ"
      ],
      [
        "ज",
        "्ला"
      ],
      [
        "ज",
        "ारी"
      ],
      [
        "द",
        "हाय"
      ],
      [
        "न",
        "ानि"
      ],
      [
        "ब",
        "ना"
      ],
      [
        "म",
        "ʼ"
      ],
      [
        "म",
        "ौ"
      ],
      [
        "ल",
        "क"
      ],
      [
        "ाय",
        "ाबो"
      ],
      [
        "बि",
        "जेपि"
      ],
      [
        "ाब",
        "्लाबो"
      ],
      [
        "ना",
        "लि"
      ],
      [
        "मोन",
        "नायनि"
      ],
      [
        "सा",
        "जाय"
      ],
      [
        "लि",
        "याव"
      ],
      [
        "खा",
        "दों"
      ],
      [
        "गि",
        "या"
      ],
      [
        "गि",
        "यो"
      ],
      [
        "गु",
        "रु"
      ],
      [
        "थाय",
        "खौ"
      ],
      [
        "मु",
        "स्कु"
      ],
      [
        "ले",
        "न्ड"
      ],
      [
        "फि",
        "र"
      ],
      [
        "्ट",
        "ि"
      ],
      [
        "मे",
        "रा"
      ],
      [
        "गाव",
        "बा"
      ],
      [
        "राव",
        "ा"
      ],
      [
        "दै",
        "नि"
      ],
      [
        "नै",
        "थि"
      ],
      [
        "नां",
        "दों"
      ],
      [
        "थार",
        "ला"
      ],
      [
        "जु",
        "लाइ"
      ],
      [
        "....",
        "....."
      ],
      [
        "मान",
        "ा"
      ],
      [
        "ने",
        "म"
      ],
      [
        "गाब",
        "ज्रि"
      ],
      [
        "सार",
        "नाय"
      ],
      [
        "ग्र",
        "ानि"
      ],
      [
        "ङै",
        "नो"
      ],
      [
        "मोन्",
        "दां"
      ],
      [
        "आय",
        "ेन"
      ],
      [
        "फ्रा",
        "म"
      ],
      [
        "थानाय",
        "नि"
      ],
      [
        "सोलाय",
        "नाय"
      ],
      [
        "फंबाय",
        "खौ"
      ],
      [
        "गोग्लै",
        "यो"
      ],
      [
        "खान",
        "ाइ"
      ],
      [
        "लोर",
        "बां"
      ],
      [
        "गोब्र",
        "ाब"
      ],
      [
        "ए",
        "सि"
      ],
      [
        "ख",
        "बर"
      ],
      [
        "ख",
        "ाबाय"
      ],
      [
        "ग",
        "ारा"
      ],
      [
        "घ",
        "न्ट"
      ],
      [
        "ङ",
        "ाइ"
      ],
      [
        "ड",
        "्र"
      ],
      [
        "ण",
        "्ड"
      ],
      [
        "थ",
        "ब"
      ],
      [
        "थ",
        "ाना"
      ],
      [
        "ध",
        "ु"
      ],
      [
        "म",
        "ां"
      ],
      [
        "ल",
        "क्ष"
      ],
      [
        "व",
        "ाबो"
      ],
      [
        "स",
        "मि"
      ],
      [
        "ह",
        "ारी"
      ],
      [
        "ि",
        "क"
      ],
      [
        "ो",
        "मा"
      ],
      [
        "बि",
        "जों"
      ],
      [
        "बि",
        "थाङा"
      ],
      [
        "ना",
        "म"
      ],
      [
        "ना",
        "लाय"
      ],
      [
        "बे",
        "खायनो"
      ],
      [
        "जा",
        "म्बि"
      ],
      [
        "सोर",
        "ा"
      ],
      [
        "गु",
        "फुर"
      ],
      [
        "मु",
        "गै"
      ],
      [
        "मु",
        "वा"
      ],
      [
        "मु",
        "स्क"
      ],
      [
        "हो",
        "ब"
      ],
      [
        "फि",
        "साय"
      ],
      [
        "फि",
        "साया"
      ],
      [
        "खो",
        "ला"
      ],
      [
        "दं",
        "खायो"
      ],
      [
        "दं",
        "बावो"
      ],
      [
        "राव",
        "खौबो"
      ],
      [
        "नै",
        "बे"
      ],
      [
        "खि",
        "नि"
      ],
      [
        "गोर",
        "ि"
      ],
      [
        "फ्र",
        "ाबो"
      ],
      [
        "रां",
        "खौ"
      ],
      [
        "गे",
        "देर"
      ],
      [
        "रु",
        "जु"
      ],
      [
        "्ल",
        "ानो"
      ],
      [
        "नु",
        "बाय"
      ],
      [
        "नु",
        "यो"
      ],
      [
        "गाब",
        "दों"
      ],
      [
        "लै",
        "न्ड"
      ],
      [
        "क्",
        "या"
      ],
      [
        "जाब",
        "ाव"
      ],
      [
        "हारि",
        "खौ"
      ],
      [
        "देर",
        "हानाय"
      ],
      [
        "गं",
        "नै"
      ],
      [
        "सानै",
        "जों"
      ],
      [
        "आले",
        "नि"
      ],
      [
        "ंग",
        "्रि"
      ],
      [
        "ग्ल",
        "ाब"
      ],
      [
        "........",
        ".."
      ],
      [
        "सिनाय",
        "थि"
      ],
      [
        "गसं",
        "नानै"
      ],
      [
        "दम",
        "ना"
      ],
      [
        "संसार",
        "ाव"
      ],
      [
        "फावथाइ",
        "नि"
      ],
      [
        "श्",
        "व"
      ],
      [
        "मीन",
        "ाराम"
      ],
      [
        "हार्",
        "सि"
      ],
      [
        "गुन्द",
        "ाया"
      ],
      [
        "बड़",
        "ʼ"
      ],
      [
        "मुस्कु",
        "रा"
      ],
      [
        "मुस्क",
        "ान"
      ],
      [
        "_",
        "_"
      ],
      [
        "आ",
        "लि"
      ],
      [
        "आ",
        "लाय"
      ],
      [
        "आ",
        "दै"
      ],
      [
        "उ",
        "द"
      ],
      [
        "क",
        "त"
      ],
      [
        "क",
        "न"
      ],
      [
        "ग",
        "ाइ"
      ],
      [
        "द",
        "ारि"
      ],
      [
        "प",
        "ी"
      ],
      [
        "य",
        "ह"
      ],
      [
        "स",
        "य"
      ],
      [
        "स",
        "र्"
      ],
      [
        "ह",
        "य"
      ],
      [
        "नि",
        "माहा"
      ],
      [
        "बि",
        "ब"
      ],
      [
        "बि",
        "ना"
      ],
      [
        "बि",
        "बʼ"
      ],
      [
        "नाय",
        "नानै"
      ],
      [
        "से",
        "ब"
      ],
      [
        "से",
        "व"
      ],
      [
        "गो",
        "लै"
      ],
      [
        "हा",
        "दों"
      ],
      [
        "हा",
        "जो"
      ],
      [
        "हा",
        "जार"
      ],
      [
        "मोन",
        "नि"
      ],
      [
        "सा",
        "ल"
      ],
      [
        "बु",
        "ङै"
      ],
      [
        "था",
        "दो"
      ],
      [
        "फोर",
        "ाबो"
      ],
      [
        "गि",
        "नांगौ"
      ],
      [
        "थाय",
        "ै"
      ],
      [
        "जो",
        "लै"
      ],
      [
        "हो",
        "सो"
      ],
      [
        "फि",
        "सौ"
      ],
      [
        "राव",
        "निबो"
      ],
      [
        "राय",
        "जो"
      ],
      [
        "राय",
        "ज्लाय"
      ],
      [
        "थार",
        "ैनो"
      ],
      [
        "स्",
        "लु"
      ],
      [
        "होन",
        "ना"
      ],
      [
        "रु",
        "माव"
      ],
      [
        "थे",
        "र"
      ],
      [
        "आइ",
        "यै"
      ],
      [
        "क्",
        "सा"
      ],
      [
        "कि",
        "सी"
      ],
      [
        "सालि",
        "याव"
      ],
      [
        "मोन्",
        "दों"
      ],
      [
        "आले",
        "खौ"
      ],
      [
        "ओंखार",
        "दों"
      ],
      [
        "हादोर",
        "सानि"
      ],
      [
        "सर",
        "लाया"
      ],
      [
        "मह",
        "न"
      ],
      [
        "गिदि",
        "द"
      ],
      [
        "स्ट",
        "े"
      ],
      [
        "राज",
        "ानि"
      ],
      [
        "महर",
        "ै"
      ],
      [
        "साब",
        "सिन"
      ],
      [
        "अन्",
        "थाइ"
      ],
      [
        "हें",
        "थायै"
      ],
      [
        "उदां",
        "स्रि"
      ],
      [
        "नागिर",
        "दों"
      ],
      [
        "इन्",
        "दि"
      ],
      [
        "देरहा",
        "सार"
      ],
      [
        "होन्",
        "नानै"
      ],
      [
        "दख",
        "ना"
      ],
      [
        "लार",
        "ाय"
      ],
      [
        "ख्रु",
        "इ"
      ],
      [
        "मुला",
        "म्फा"
      ],
      [
        "o",
        "n"
      ],
      [
        "अ",
        "ख्रां"
      ],
      [
        "ओ",
        "हो"
      ],
      [
        "क",
        "ह"
      ],
      [
        "क",
        "ृ"
      ],
      [
        "ख",
        "ान्"
      ],
      [
        "ट",
        "्"
      ],
      [
        "द",
        "ानाय"
      ],
      [
        "द",
        "ारा"
      ],
      [
        "द",
        "ाबु"
      ],
      [
        "ध",
        "ो"
      ],
      [
        "न",
        "खौ"
      ],
      [
        "न",
        "ारि"
      ],
      [
        "न",
        "म्बर"
      ],
      [
        "फ",
        "ौ"
      ],
      [
        "भ",
        "ू"
      ],
      [
        "व",
        "ानो"
      ],
      [
        "श",
        "ी"
      ],
      [
        "स",
        "भ"
      ],
      [
        "बि",
        "बाय"
      ],
      [
        "बि",
        "दाय"
      ],
      [
        "सि",
        "ला"
      ],
      [
        "ना",
        "ङो"
      ],
      [
        "गो",
        "बा"
      ],
      [
        "हा",
        "ज"
      ],
      [
        "हा",
        "ग्रानि"
      ],
      [
        "आं",
        "नाव"
      ],
      [
        "खा",
        "उ"
      ],
      [
        "नों",
        "थाङा"
      ],
      [
        "जि",
        "मा"
      ],
      [
        "दा",
        "हार"
      ],
      [
        "गा",
        "हाइ"
      ],
      [
        "रो",
        "खा"
      ],
      [
        "रो",
        "ङै"
      ],
      [
        "गु",
        "न"
      ],
      [
        "ले",
        "खा"
      ],
      [
        "फि",
        "साइ"
      ],
      [
        "सान",
        "फ्रोमबो"
      ],
      [
        "दु",
        "लाराय"
      ],
      [
        "आरो",
        "बाव"
      ],
      [
        "गाव",
        "बुर"
      ],
      [
        "बुं",
        "नानै"
      ],
      [
        "दै",
        "देन"
      ],
      [
        "है",
        "दो"
      ],
      [
        "नां",
        "बाय"
      ],
      [
        "हर",
        "खाब"
      ],
      [
        "माब",
        "्रै"
      ],
      [
        "रु",
        "गुं"
      ],
      [
        "का",
        "प"
      ],
      [
        "खां",
        "नानै"
      ],
      [
        "हु",
        "गार"
      ],
      [
        "ओं",
        "थि"
      ],
      [
        "जिउ",
        "आव"
      ],
      [
        "साव",
        "राय"
      ],
      [
        "बेसे",
        "दि"
      ],
      [
        "ग्",
        "लोब"
      ],
      [
        "खोम",
        "दोन"
      ],
      [
        "सोम",
        "खोर"
      ],
      [
        "स्र",
        "ाव"
      ],
      [
        "आन",
        "ाराम"
      ],
      [
        "माइ",
        "थायाव"
      ],
      [
        "फुं",
        "खा"
      ],
      [
        "गोरबो",
        "आ"
      ],
      [
        "सोन",
        "ाब"
      ],
      [
        "गाहाय",
        "ाव"
      ],
      [
        "दुर्",
        "गा"
      ],
      [
        "आखु",
        "वा"
      ],
      [
        "नार्",
        "स"
      ],
      [
        "सहे",
        "ना"
      ],
      [
        "बियाब",
        "ाव"
      ],
      [
        "दान्",
        "दिसे"
      ],
      [
        "बेरे",
        "खा"
      ],
      [
        "च्छ",
        "ा"
      ],
      [
        "अनलाय",
        "नायाव"
      ],
      [
        "मंग",
        "ल"
      ],
      [
        "i",
        "n"
      ],
      [
        "अ",
        "फ"
      ],
      [
        "आ",
        "फाया"
      ],
      [
        "इ",
        "सि"
      ],
      [
        "इ",
        "न्ट"
      ],
      [
        "ए",
        "र"
      ],
      [
        "क",
        "्ल"
      ],
      [
        "ग",
        "ानाय"
      ],
      [
        "ङ",
        "ाबो"
      ],
      [
        "ज",
        "यो"
      ],
      [
        "ट",
        "्रि"
      ],
      [
        "थ",
        "्र"
      ],
      [
        "द",
        "ोना"
      ],
      [
        "ध",
        "न"
      ],
      [
        "न",
        "ाबो"
      ],
      [
        "प",
        "ल"
      ],
      [
        "प",
        "रि"
      ],
      [
        "प",
        "ार्"
      ],
      [
        "प",
        "ेन"
      ],
      [
        "ब",
        "थि"
      ],
      [
        "र",
        "ू"
      ],
      [
        "ल",
        "ान्"
      ],
      [
        "श",
        "ु"
      ],
      [
        "स",
        "प"
      ],
      [
        "स",
        "फै"
      ],
      [
        "स",
        "लपुर"
      ],
      [
        "नि",
        "नो"
      ],
      [
        "बि",
        "दै"
      ],
      [
        "बि",
        "थांखि"
      ],
      [
        "ला",
        "से"
      ],
      [
        "नाय",
        "हर"
      ],
      [
        "बो",
        "सोन"
      ],
      [
        "या",
        "लाय"
      ],
      [
        "जा",
        "लां"
      ],
      [
        "दों",
        "से"
      ],
      [
        "दि",
        "स"
      ],
      [
        "न्",
        "दु"
      ],
      [
        "गोन",
        "ो"
      ],
      [
        "फोर",
        "्बो"
      ],
      [
        "गि",
        "ख्र"
      ],
      [
        "मु",
        "र"
      ],
      [
        "मु",
        "सलपुर"
      ],
      [
        "मे",
        "हेर"
      ],
      [
        "राव",
        "नि"
      ],
      [
        "दै",
        "मारि"
      ],
      [
        "थार",
        "ो"
      ],
      [
        "जु",
        "रि"
      ],
      [
        "हाब",
        "ानि"
      ],
      [
        "मान",
        "े"
      ],
      [
        "फ्र",
        "ु"
      ],
      [
        "ने",
        "र"
      ],
      [
        "बार",
        "े"
      ],
      [
        "रु",
        "पा"
      ],
      [
        "का",
        "म"
      ],
      [
        "नु",
        "वा"
      ],
      [
        "दान",
        "नि"
      ],
      [
        "ग्र",
        "ाया"
      ],
      [
        "ग्र",
        "ोम"
      ],
      [
        "गार",
        "ां"
      ],
      [
        "थै",
        "नाय"
      ],
      [
        "टि",
        "भ"
      ],
      [
        "हाद",
        "र"
      ],
      [
        "थाव",
        "नि"
      ],
      [
        "एसे",
        "बो"
      ],
      [
        "जाया",
        "खिसै"
      ],
      [
        "ग्",
        "लाय"
      ],
      [
        "बान",
        "ानि"
      ],
      [
        "मोना",
        "खै"
      ],
      [
        "मोना",
        "खिसै"
      ],
      [
        "पा",
        "स"
      ],
      [
        "गोजोन",
        "ै"
      ],
      [
        "हादोर",
        "सा"
      ],
      [
        "हार",
        "्ट"
      ],
      [
        "थोन",
        "ो"
      ],
      [
        "बसुमत",
        "ारि"
      ],
      [
        "बिसि",
        "खौ"
      ],
      [
        "थान",
        "ानै"
      ],
      [
        "सां",
        "ग्रा"
      ],
      [
        "गʼ",
        "साइ"
      ],
      [
        "आला",
        "दा"
      ],
      [
        "बुङा",
        "खिसै"
      ],
      [
        "बुहु",
        "मनि"
      ],
      [
        "सोमोन्",
        "दै"
      ],
      [
        "गैय",
        "ाब्ला"
      ],
      [
        "नख",
        "राव"
      ],
      [
        "आर्",
        "मि"
      ],
      [
        "फोन",
        "ां"
      ],
      [
        "सरक",
        "ारा"
      ],
      [
        "रन्",
        "जन"
      ],
      [
        "गिख्र",
        "ं"
      ],
      [
        "अ",
        "बं"
      ],
      [
        "आ",
        "स"
      ],
      [
        "आ",
        "लो"
      ],
      [
        "आ",
        "गोर"
      ],
      [
        "ओ",
        "रैनो"
      ],
      [
        "क",
        "र्"
      ],
      [
        "ख",
        "थायाव"
      ],
      [
        "ग",
        "सङो"
      ],
      [
        "छ",
        "ो"
      ],
      [
        "ज",
        "ाइ"
      ],
      [
        "द",
        "नि"
      ],
      [
        "प",
        "ह"
      ],
      [
        "प",
        "ाब"
      ],
      [
        "फ",
        "र"
      ],
      [
        "फ",
        "ायाव"
      ],
      [
        "म",
        "ारी"
      ],
      [
        "य",
        "ाया"
      ],
      [
        "र",
        "ान्"
      ],
      [
        "व",
        "ान"
      ],
      [
        "व",
        "ाया"
      ],
      [
        "स",
        "रा"
      ],
      [
        "स",
        "ाबाय"
      ],
      [
        "स",
        "भा"
      ],
      [
        "…",
        ".."
      ],
      [
        "ान",
        "े"
      ],
      [
        "बि",
        "जि"
      ],
      [
        "बि",
        "था"
      ],
      [
        "नाय",
        "सै"
      ],
      [
        "बो",
        "दों"
      ],
      [
        "बे",
        "साद"
      ],
      [
        "गो",
        "यै"
      ],
      [
        "मोन",
        "ब्ला"
      ],
      [
        "सो",
        "द्र"
      ],
      [
        "बा",
        "गान"
      ],
      [
        "थि",
        "नो"
      ],
      [
        "नों",
        "नाव"
      ],
      [
        "जों",
        "रु"
      ],
      [
        "जि",
        "बौ"
      ],
      [
        "गा",
        "ल"
[...]
